{
  "version": "1.0",
  "truncation": null,
  "padding": null,
  "added_tokens": [
    {
      "id": 0,
      "content": "[UNK]",
      "single_word": false,
      "lstrip": false,
      "rstrip": false,
      "normalized": false,
      "special": true
    },
    {
      "id": 1,
      "content": "[PAD]",
      "single_word": false,
      "lstrip": false,
      "rstrip": false,
      "normalized": false,
      "special": true
    },
    {
      "id": 2,
      "content": "[CLS]",
      "single_word": false,
      "lstrip": false,
      "rstrip": false,
      "normalized": false,
      "special": true
    },
    {
      "id": 3,
      "content": "[SEP]",
      "single_word": false,
      "lstrip": false,
      "rstrip": false,
      "normalized": false,
      "special": true
    },
    {
      "id": 4,
      "content": "[MASK]",
      "single_word": false,
      "lstrip": false,
      "rstrip": false,
      "normalized": false,
      "special": true
    }
  ],
  "normalizer": {
    "type": "Sequence",
    "normalizers": [
      {
        "type": "NFD"
      },
      {
        "type": "Lowercase"
      },
      {
        "type": "StripAccents"
      }
    ]
  },
  "pre_tokenizer": {
    "type": "Whitespace"
  },
  "post_processor": {
    "type": "TemplateProcessing",
    "single": [
      {
        "SpecialToken": {
          "id": "[CLS]",
          "type_id": 0
        }
      },
      {
        "Sequence": {
          "id": "A",
          "type_id": 0
        }
      },
      {
        "SpecialToken": {
          "id": "[SEP]",
          "type_id": 0
        }
      }
    ],
    "pair": [
      {
        "SpecialToken": {
          "id": "[CLS]",
          "type_id": 0
        }
      },
      {
        "Sequence": {
          "id": "A",
          "type_id": 0
        }
      },
      {
        "SpecialToken": {
          "id": "[SEP]",
          "type_id": 0
        }
      },
      {
        "Sequence": {
          "id": "B",
          "type_id": 1
        }
      },
      {
        "SpecialToken": {
          "id": "[SEP]",
          "type_id": 1
        }
      }
    ],
    "special_tokens": {
      "[CLS]": {
        "id": "[CLS]",
        "ids": [
          2
        ],
        "tokens": [
          "[CLS]"
        ]
      },
      "[SEP]": {
        "id": "[SEP]",
        "ids": [
          3
        ],
        "tokens": [
          "[SEP]"
        ]
      }
    }
  },
  "decoder": {
    "type": "WordPiece",
    "prefix": "##",
    "cleanup": true
  },
  "model": {
    "type": "WordPiece",
    "unk_token": "[UNK]",
    "continuing_subword_prefix": "##",
    "max_input_chars_per_word": 100,
    "vocab": {
      "[UNK]": 0,
      "[PAD]": 1,
      "[CLS]": 2,
      "[SEP]": 3,
      "[MASK]": 4,
      "!": 5,
      "\"": 6,
      "#": 7,
      "$": 8,
      "%": 9,
      "&": 10,
      "'": 11,
      "(": 12,
      ")": 13,
      "*": 14,
      "+": 15,
      ",": 16,
      "-": 17,
      ".": 18,
      "/": 19,
      "0": 20,
      "1": 21,
      "2": 22,
      "3": 23,
      "4": 24,
      "5": 25,
      "6": 26,
      "7": 27,
      "8": 28,
      "9": 29,
      ":": 30,
      ";": 31,
      "<": 32,
      "=": 33,
      ">": 34,
      "?": 35,
      "@": 36,
      "[": 37,
      "\\": 38,
      "]": 39,
      "^": 40,
      "_": 41,
      "`": 42,
      "a": 43,
      "b": 44,
      "c": 45,
      "d": 46,
      "e": 47,
      "f": 48,
      "g": 49,
      "h": 50,
      "i": 51,
      "j": 52,
      "k": 53,
      "l": 54,
      "m": 55,
      "n": 56,
      "o": 57,
      "p": 58,
      "q": 59,
      "r": 60,
      "s": 61,
      "t": 62,
      "u": 63,
      "v": 64,
      "w": 65,
      "x": 66,
      "y": 67,
      "z": 68,
      "|": 69,
      "}": 70,
      "~": 71,
      "": 72,
      "": 73,
      "¡": 74,
      "¢": 75,
      "£": 76,
      "¥": 77,
      "§": 78,
      "©": 79,
      "°": 80,
      "±": 81,
      "²": 82,
      "³": 83,
      "´": 84,
      "µ": 85,
      "·": 86,
      "º": 87,
      "½": 88,
      "¾": 89,
      "¿": 90,
      "×": 91,
      "ß": 92,
      "æ": 93,
      "ð": 94,
      "ø": 95,
      "þ": 96,
      "đ": 97,
      "ħ": 98,
      "ı": 99,
      "ł": 100,
      "œ": 101,
      "ɐ": 102,
      "ɑ": 103,
      "ɒ": 104,
      "ɔ": 105,
      "ə": 106,
      "ɛ": 107,
      "ɜ": 108,
      "ɡ": 109,
      "ɢ": 110,
      "ɪ": 111,
      "ɫ": 112,
      "ɳ": 113,
      "ɽ": 114,
      "ɾ": 115,
      "ʁ": 116,
      "ʃ": 117,
      "ʊ": 118,
      "ʋ": 119,
      "ʒ": 120,
      "ʔ": 121,
      "ʕ": 122,
      "ʲ": 123,
      "ʻ": 124,
      "ʼ": 125,
      "ʾ": 126,
      "ʿ": 127,
      "ˈ": 128,
      "ˌ": 129,
      "ː": 130,
      "α": 131,
      "β": 132,
      "γ": 133,
      "δ": 134,
      "ε": 135,
      "η": 136,
      "θ": 137,
      "ι": 138,
      "κ": 139,
      "λ": 140,
      "μ": 141,
      "ν": 142,
      "ξ": 143,
      "ο": 144,
      "π": 145,
      "ρ": 146,
      "ς": 147,
      "σ": 148,
      "τ": 149,
      "υ": 150,
      "φ": 151,
      "χ": 152,
      "ψ": 153,
      "ω": 154,
      "а": 155,
      "б": 156,
      "в": 157,
      "г": 158,
      "д": 159,
      "е": 160,
      "ж": 161,
      "з": 162,
      "и": 163,
      "к": 164,
      "л": 165,
      "м": 166,
      "н": 167,
      "о": 168,
      "п": 169,
      "р": 170,
      "с": 171,
      "т": 172,
      "у": 173,
      "х": 174,
      "ц": 175,
      "ш": 176,
      "ъ": 177,
      "ы": 178,
      "ь": 179,
      "ю": 180,
      "я": 181,
      "є": 182,
      "א": 183,
      "ב": 184,
      "ג": 185,
      "ה": 186,
      "ו": 187,
      "ז": 188,
      "ח": 189,
      "י": 190,
      "ל": 191,
      "ם": 192,
      "מ": 193,
      "ן": 194,
      "נ": 195,
      "ס": 196,
      "ף": 197,
      "פ": 198,
      "צ": 199,
      "ר": 200,
      "ש": 201,
      "ת": 202,
      "ء": 203,
      "ا": 204,
      "ب": 205,
      "ة": 206,
      "ت": 207,
      "ث": 208,
      "ج": 209,
      "ح": 210,
      "خ": 211,
      "د": 212,
      "ذ": 213,
      "ر": 214,
      "س": 215,
      "ش": 216,
      "ص": 217,
      "ع": 218,
      "ف": 219,
      "ق": 220,
      "ك": 221,
      "ل": 222,
      "م": 223,
      "ن": 224,
      "ه": 225,
      "و": 226,
      "ي": 227,
      "ڠ": 228,
      "ܐ": 229,
      "ܕ": 230,
      "ܗ": 231,
      "ܝ": 232,
      "ܠ": 233,
      "ܢ": 234,
      "ܬ": 235,
      "अ": 236,
      "ई": 237,
      "क": 238,
      "ग": 239,
      "ण": 240,
      "त": 241,
      "द": 242,
      "न": 243,
      "प": 244,
      "ब": 245,
      "म": 246,
      "य": 247,
      "र": 248,
      "ल": 249,
      "व": 250,
      "ष": 251,
      "स": 252,
      "ह": 253,
      "আ": 254,
      "ল": 255,
      "হ": 256,
      "ਅ": 257,
      "ਲ": 258,
      "ਹ": 259,
      "അ": 260,
      "ള": 261,
      "ഹ": 262,
      "ก": 263,
      "ค": 264,
      "ง": 265,
      "ช": 266,
      "ซ": 267,
      "ญ": 268,
      "ฐ": 269,
      "ณ": 270,
      "ด": 271,
      "ต": 272,
      "น": 273,
      "บ": 274,
      "ป": 275,
      "พ": 276,
      "ภ": 277,
      "ม": 278,
      "ย": 279,
      "ร": 280,
      "ล": 281,
      "ว": 282,
      "ศ": 283,
      "ษ": 284,
      "ส": 285,
      "ห": 286,
      "อ": 287,
      "ฮ": 288,
      "ะ": 289,
      "า": 290,
      "เ": 291,
      "แ": 292,
      "ไ": 293,
      "ဂ": 294,
      "စ": 295,
      "ဇ": 296,
      "တ": 297,
      "န": 298,
      "ပ": 299,
      "မ": 300,
      "ရ": 301,
      "လ": 302,
      "အ": 303,
      "၁": 304,
      "၂": 305,
      "၇": 306,
      "၈": 307,
      "ა": 308,
      "ბ": 309,
      "გ": 310,
      "დ": 311,
      "ე": 312,
      "ვ": 313,
      "ზ": 314,
      "თ": 315,
      "ი": 316,
      "კ": 317,
      "ლ": 318,
      "მ": 319,
      "ნ": 320,
      "ო": 321,
      "პ": 322,
      "ჟ": 323,
      "რ": 324,
      "ს": 325,
      "ტ": 326,
      "უ": 327,
      "ფ": 328,
      "ქ": 329,
      "ღ": 330,
      "ყ": 331,
      "შ": 332,
      "ჩ": 333,
      "ც": 334,
      "ძ": 335,
      "წ": 336,
      "ჭ": 337,
      "ხ": 338,
      "ჯ": 339,
      "ჰ": 340,
      "ჱ": 341,
      "ჲ": 342,
      "ჳ": 343,
      "ჴ": 344,
      "ჵ": 345,
      "ჶ": 346,
      "ჷ": 347,
      "ჸ": 348,
      "ჹ": 349,
      "ჺ": 350,
      "჻": 351,
      "ᄃ": 352,
      "ᄅ": 353,
      "ᄇ": 354,
      "ᄋ": 355,
      "ᄌ": 356,
      "ᅡ": 357,
      "ᅢ": 358,
      "ᅦ": 359,
      "ᅧ": 360,
      "ᅩ": 361,
      "ᅮ": 362,
      "ᅵ": 363,
      "ᆨ": 364,
      "ᆫ": 365,
      "ᆯ": 366,
      "ᆸ": 367,
      "ᆼ": 368,
      "ᵻ": 369,
      "​": 370,
      "‐": 371,
      "‑": 372,
      "–": 373,
      "—": 374,
      "―": 375,
      "‘": 376,
      "’": 377,
      "“": 378,
      "”": 379,
      "„": 380,
      "†": 381,
      "‡": 382,
      "•": 383,
      "…": 384,
      "′": 385,
      "″": 386,
      "⁄": 387,
      "₣": 388,
      "₤": 389,
      "₩": 390,
      "€": 391,
      "₱": 392,
      "₹": 393,
      "⅓": 394,
      "⅔": 395,
      "→": 396,
      "−": 397,
      "≡": 398,
      "≤": 399,
      "①": 400,
      "☉": 401,
      "☫": 402,
      "♀": 403,
      "♭": 404,
      "♯": 405,
      "⚳": 406,
      "ⴀ": 407,
      "ⴂ": 408,
      "ⴃ": 409,
      "ⴈ": 410,
      "ⴌ": 411,
      "ⴕ": 412,
      "ⴟ": 413,
      "〈": 414,
      "〉": 415,
      "〜": 416,
      "あ": 417,
      "い": 418,
      "う": 419,
      "お": 420,
      "か": 421,
      "き": 422,
      "く": 423,
      "け": 424,
      "こ": 425,
      "さ": 426,
      "し": 427,
      "す": 428,
      "せ": 429,
      "た": 430,
      "ち": 431,
      "っ": 432,
      "つ": 433,
      "と": 434,
      "な": 435,
      "に": 436,
      "の": 437,
      "は": 438,
      "ひ": 439,
      "ふ": 440,
      "ほ": 441,
      "ま": 442,
      "み": 443,
      "め": 444,
      "も": 445,
      "ゃ": 446,
      "ゆ": 447,
      "ょ": 448,
      "ら": 449,
      "り": 450,
      "る": 451,
      "れ": 452,
      "わ": 453,
      "を": 454,
      "ん": 455,
      "ァ": 456,
      "ア": 457,
      "ィ": 458,
      "イ": 459,
      "ゥ": 460,
      "ウ": 461,
      "ェ": 462,
      "エ": 463,
      "ォ": 464,
      "オ": 465,
      "カ": 466,
      "キ": 467,
      "ク": 468,
      "ケ": 469,
      "コ": 470,
      "サ": 471,
      "シ": 472,
      "ス": 473,
      "セ": 474,
      "タ": 475,
      "チ": 476,
      "ッ": 477,
      "ツ": 478,
      "テ": 479,
      "ト": 480,
      "ナ": 481,
      "ニ": 482,
      "ネ": 483,
      "ノ": 484,
      "ハ": 485,
      "フ": 486,
      "ヘ": 487,
      "マ": 488,
      "ミ": 489,
      "ム": 490,
      "モ": 491,
      "ャ": 492,
      "ュ": 493,
      "ョ": 494,
      "ラ": 495,
      "リ": 496,
      "ル": 497,
      "レ": 498,
      "ロ": 499,
      "ン": 500,
      "・": 501,
      "ー": 502,
      "一": 503,
      "七": 504,
      "下": 505,
      "世": 506,
      "丙": 507,
      "中": 508,
      "为": 509,
      "主": 510,
      "乃": 511,
      "之": 512,
      "乙": 513,
      "九": 514,
      "二": 515,
      "云": 516,
      "人": 517,
      "今": 518,
      "付": 519,
      "伊": 520,
      "似": 521,
      "作": 522,
      "侗": 523,
      "依": 524,
      "信": 525,
      "傳": 526,
      "儚": 527,
      "充": 528,
      "光": 529,
      "全": 530,
      "八": 531,
      "六": 532,
      "兵": 533,
      "其": 534,
      "具": 535,
      "円": 536,
      "再": 537,
      "出": 538,
      "判": 539,
      "利": 540,
      "制": 541,
      "刷": 542,
      "前": 543,
      "剛": 544,
      "劇": 545,
      "劉": 546,
      "助": 547,
      "動": 548,
      "勢": 549,
      "包": 550,
      "化": 551,
      "北": 552,
      "十": 553,
      "千": 554,
      "华": 555,
      "南": 556,
      "印": 557,
      "厂": 558,
      "去": 559,
      "古": 560,
      "可": 561,
      "台": 562,
      "史": 563,
      "同": 564,
      "名": 565,
      "君": 566,
      "吳": 567,
      "周": 568,
      "命": 569,
      "和": 570,
      "咲": 571,
      "唐": 572,
      "善": 573,
      "四": 574,
      "國": 575,
      "園": 576,
      "圣": 577,
      "在": 578,
      "坂": 579,
      "型": 580,
      "堂": 581,
      "堤": 582,
      "場": 583,
      "塘": 584,
      "士": 585,
      "夕": 586,
      "大": 587,
      "天": 588,
      "夫": 589,
      "奈": 590,
      "套": 591,
      "女": 592,
      "妙": 593,
      "姚": 594,
      "子": 595,
      "孟": 596,
      "学": 597,
      "學": 598,
      "守": 599,
      "安": 600,
      "宋": 601,
      "完": 602,
      "宗": 603,
      "定": 604,
      "宝": 605,
      "宫": 606,
      "寝": 607,
      "寶": 608,
      "寺": 609,
      "小": 610,
      "少": 611,
      "尾": 612,
      "山": 613,
      "岳": 614,
      "川": 615,
      "州": 616,
      "巳": 617,
      "市": 618,
      "師": 619,
      "平": 620,
      "广": 621,
      "庆": 622,
      "府": 623,
      "座": 624,
      "廬": 625,
      "建": 626,
      "开": 627,
      "式": 628,
      "張": 629,
      "彌": 630,
      "彩": 631,
      "影": 632,
      "彼": 633,
      "征": 634,
      "律": 635,
      "後": 636,
      "御": 637,
      "微": 638,
      "德": 639,
      "心": 640,
      "必": 641,
      "忠": 642,
      "思": 643,
      "愛": 644,
      "憑": 645,
      "憶": 646,
      "應": 647,
      "懷": 648,
      "成": 649,
      "战": 650,
      "戦": 651,
      "所": 652,
      "扈": 653,
      "技": 654,
      "拉": 655,
      "拱": 656,
      "拳": 657,
      "挑": 658,
      "揺": 659,
      "攻": 660,
      "放": 661,
      "政": 662,
      "散": 663,
      "文": 664,
      "斯": 665,
      "方": 666,
      "日": 667,
      "旦": 668,
      "旭": 669,
      "昌": 670,
      "明": 671,
      "星": 672,
      "春": 673,
      "晋": 674,
      "景": 675,
      "智": 676,
      "曦": 677,
      "書": 678,
      "月": 679,
      "望": 680,
      "朝": 681,
      "未": 682,
      "本": 683,
      "李": 684,
      "村": 685,
      "杜": 686,
      "束": 687,
      "来": 688,
      "東": 689,
      "板": 690,
      "林": 691,
      "果": 692,
      "桜": 693,
      "梶": 694,
      "棘": 695,
      "椎": 696,
      "楊": 697,
      "楚": 698,
      "榮": 699,
      "樸": 700,
      "橘": 701,
      "機": 702,
      "正": 703,
      "殻": 704,
      "殿": 705,
      "毅": 706,
      "母": 707,
      "民": 708,
      "水": 709,
      "汉": 710,
      "沂": 711,
      "沙": 712,
      "河": 713,
      "法": 714,
      "泗": 715,
      "波": 716,
      "泣": 717,
      "洪": 718,
      "浮": 719,
      "淹": 720,
      "清": 721,
      "湯": 722,
      "漢": 723,
      "澄": 724,
      "澤": 725,
      "火": 726,
      "灯": 727,
      "灵": 728,
      "灼": 729,
      "無": 730,
      "焼": 731,
      "熱": 732,
      "牌": 733,
      "物": 734,
      "狐": 735,
      "狸": 736,
      "玄": 737,
      "玉": 738,
      "王": 739,
      "玩": 740,
      "珂": 741,
      "珙": 742,
      "球": 743,
      "理": 744,
      "琦": 745,
      "琪": 746,
      "瓊": 747,
      "生": 748,
      "甫": 749,
      "田": 750,
      "甲": 751,
      "畢": 752,
      "番": 753,
      "畫": 754,
      "疆": 755,
      "病": 756,
      "瘡": 757,
      "白": 758,
      "皇": 759,
      "皮": 760,
      "真": 761,
      "砲": 762,
      "礮": 763,
      "祈": 764,
      "神": 765,
      "祠": 766,
      "秋": 767,
      "秘": 768,
      "稽": 769,
      "空": 770,
      "立": 771,
      "竹": 772,
      "箋": 773,
      "籠": 774,
      "精": 775,
      "紀": 776,
      "約": 777,
      "統": 778,
      "絵": 779,
      "緬": 780,
      "織": 781,
      "繹": 782,
      "義": 783,
      "翠": 784,
      "者": 785,
      "耕": 786,
      "聖": 787,
      "肖": 788,
      "背": 789,
      "胡": 790,
      "膀": 791,
      "臂": 792,
      "致": 793,
      "興": 794,
      "舍": 795,
      "艦": 796,
      "良": 797,
      "芥": 798,
      "花": 799,
      "芳": 800,
      "芽": 801,
      "若": 802,
      "英": 803,
      "萬": 804,
      "著": 805,
      "藕": 806,
      "藥": 807,
      "蘄": 808,
      "蘇": 809,
      "蘿": 810,
      "處": 811,
      "蝴": 812,
      "蝶": 813,
      "行": 814,
      "術": 815,
      "衛": 816,
      "表": 817,
      "裁": 818,
      "裝": 819,
      "要": 820,
      "規": 821,
      "覺": 822,
      "观": 823,
      "解": 824,
      "言": 825,
      "記": 826,
      "詔": 827,
      "詩": 828,
      "誓": 829,
      "誡": 830,
      "誰": 831,
      "謎": 832,
      "譌": 833,
      "譚": 834,
      "譜": 835,
      "變": 836,
      "许": 837,
      "谭": 838,
      "豪": 839,
      "豫": 840,
      "費": 841,
      "贈": 842,
      "贵": 843,
      "赤": 844,
      "趙": 845,
      "足": 846,
      "跡": 847,
      "軒": 848,
      "転": 849,
      "辛": 850,
      "辨": 851,
      "迪": 852,
      "逆": 853,
      "遇": 854,
      "運": 855,
      "過": 856,
      "道": 857,
      "遠": 858,
      "選": 859,
      "邦": 860,
      "邱": 861,
      "邵": 862,
      "部": 863,
      "郭": 864,
      "都": 865,
      "酈": 866,
      "里": 867,
      "野": 868,
      "金": 869,
      "鉄": 870,
      "銃": 871,
      "鋼": 872,
      "錄": 873,
      "錡": 874,
      "錦": 875,
      "鍵": 876,
      "鐵": 877,
      "钱": 878,
      "铁": 879,
      "關": 880,
      "防": 881,
      "阿": 882,
      "陈": 883,
      "陳": 884,
      "陽": 885,
      "隊": 886,
      "階": 887,
      "集": 888,
      "雞": 889,
      "雪": 890,
      "雲": 891,
      "霖": 892,
      "霹": 893,
      "靂": 894,
      "韓": 895,
      "頒": 896,
      "願": 897,
      "類": 898,
      "顯": 899,
      "颜": 900,
      "饾": 901,
      "駢": 902,
      "驗": 903,
      "马": 904,
      "體": 905,
      "高": 906,
      "魯": 907,
      "齋": 908,
      "龍": 909,
      "ﷲ": 910,
      "ﻋ": 911,
      "﻿": 912,
      "／": 913,
      "３": 914,
      "～": 915,
      "�": 916,
      "##m": 917,
      "##i": 918,
      "##l": 919,
      "##o": 920,
      "##g": 921,
      "##e": 922,
      "##d": 923,
      "##n": 924,
      "##u": 925,
      "##r": 926,
      "##t": 927,
      "##y": 928,
      "##a": 929,
      "##w": 930,
      "##s": 931,
      "##c": 932,
      "##p": 933,
      "##k": 934,
      "##b": 935,
      "##v": 936,
      "##h": 937,
      "##z": 938,
      "##4": 939,
      "##0": 940,
      "##j": 941,
      "##2": 942,
      "##9": 943,
      "##3": 944,
      "##f": 945,
      "##5": 946,
      "##q": 947,
      "##8": 948,
      "##果": 949,
      "##æ": 950,
      "##x": 951,
      "##6": 952,
      "##7": 953,
      "##1": 954,
      "##し": 955,
      "##の": 956,
      "##た": 957,
      "##ま": 958,
      "##靂": 959,
      "##火": 960,
      "##球": 961,
      "##ス": 962,
      "##テ": 963,
      "##ィ": 964,
      "##ニ": 965,
      "##ー": 966,
      "##は": 967,
      "##め": 968,
      "##ナ": 969,
      "##リ": 970,
      "##ו": 971,
      "##פ": 972,
      "##נ": 973,
      "##ה": 974,
      "##а": 975,
      "##н": 976,
      "##т": 977,
      "##о": 978,
      "##к": 979,
      "##р": 980,
      "##本": 981,
      "##ł": 982,
      "##и": 983,
      "##ш": 984,
      "##е": 985,
      "##в": 986,
      "##ц": 987,
      "##ь": 988,
      "##都": 989,
      "##魯": 990,
      "##र": 991,
      "##ל": 992,
      "##ᅦ": 993,
      "##ᄃ": 994,
      "##ᅩ": 995,
      "##ᆨ": 996,
      "##ᄅ": 997,
      "##ᅵ": 998,
      "##ᆸ": 999,
      "##ᄇ": 1000,
      "##ᅧ": 1001,
      "##ᆼ": 1002,
      "##ᄋ": 1003,
      "##ᆫ": 1004,
      "##ᅢ": 1005,
      "##村": 1006,
      "##ø": 1007,
      "##τ": 1008,
      "##ι": 1009,
      "##β": 1010,
      "##ร": 1011,
      "##く": 1012,
      "##り": 1013,
      "##あ": 1014,
      "##う": 1015,
      "##鍵": 1016,
      "##ل": 1017,
      "##ف": 1018,
      "##ر": 1019,
      "##س": 1020,
      "##ا": 1021,
      "##ن": 1022,
      "##π": 1023,
      "##月": 1024,
      "##散": 1025,
      "##關": 1026,
      "##史": 1027,
      "##ʊ": 1028,
      "##α": 1029,
      "##ი": 1030,
      "##ภ": 1031,
      "##า": 1032,
      "##ด": 1033,
      "##ɪ": 1034,
      "##ə": 1035,
      "##狸": 1036,
      "##精": 1037,
      "##ʔ": 1038,
      "##ه": 1039,
      "##ю": 1040,
      "##з": 1041,
      "##ß": 1042,
      "##द": 1043,
      "##ت": 1044,
      "##ഹ": 1045,
      "##д": 1046,
      "##л": 1047,
      "##統": 1048,
      "##浮": 1049,
      "##玉": 1050,
      "##妙": 1051,
      "##观": 1052,
      "##ɑ": 1053,
      "##ː": 1054,
      "##場": 1055,
      "##ウ": 1056,
      "##ァ": 1057,
      "##ル": 1058,
      "##キ": 1059,
      "##ュ": 1060,
      "##ア": 1061,
      "##束": 1062,
      "##お": 1063,
      "##守": 1064,
      "##ა": 1065,
      "##ล": 1066,
      "##ว": 1067,
      "##ง": 1068,
      "##พ": 1069,
      "##ไ": 1070,
      "##ช": 1071,
      "##ย": 1072,
      "##ν": 1073,
      "##μ": 1074,
      "##ο": 1075,
      "##ς": 1076,
      "##ˈ": 1077,
      "##藥": 1078,
      "##師": 1079,
      "##ल": 1080,
      "##文": 1081,
      "##六": 1082,
      "##書": 1083,
      "##要": 1084,
      "##か": 1085,
      "##景": 1086,
      "##イ": 1087,
      "##エ": 1088,
      "##タ": 1089,
      "##ო": 1090,
      "##მ": 1091,
      "##ე": 1092,
      "##ლ": 1093,
      "##明": 1094,
      "##表": 1095,
      "##忠": 1096,
      "##紀": 1097,
      "##淹": 1098,
      "##金": 1099,
      "##山": 1100,
      "##夕": 1101,
      "##焼": 1102,
      "##け": 1103,
      "##板": 1104,
      "##花": 1105,
      "##懷": 1106,
      "##წ": 1107,
      "##ფ": 1108,
      "##đ": 1109,
      "##建": 1110,
      "##华": 1111,
      "##在": 1112,
      "##乃": 1113,
      "##ʻ": 1114,
      "##و": 1115,
      "##د": 1116,
      "##ڠ": 1117,
      "##ρ": 1118,
      "##ω": 1119,
      "##ε": 1120,
      "##ラ": 1121,
      "##フ": 1122,
      "##ト": 1123,
      "##ッ": 1124,
      "##ク": 1125,
      "##χ": 1126,
      "##舍": 1127,
      "##人": 1128,
      "##堤": 1129,
      "##λ": 1130,
      "##作": 1131,
      "##化": 1132,
      "##も": 1133,
      "##君": 1134,
      "##願": 1135,
      "##な": 1136,
      "##ら": 1137,
      "##宋": 1138,
      "##中": 1139,
      "##興": 1140,
      "##岳": 1141,
      "##王": 1142,
      "##傳": 1143,
      "##礮": 1144,
      "##უ": 1145,
      "##ც": 1146,
      "##რ": 1147,
      "##လ": 1148,
      "##ရ": 1149,
      "##ဇ": 1150,
      "##ъ": 1151,
      "##с": 1152,
      "##和": 1153,
      "##川": 1154,
      "##充": 1155,
      "##ɒ": 1156,
      "##琦": 1157,
      "##曦": 1158,
      "##依": 1159,
      "##子": 1160,
      "##雪": 1161,
      "##正": 1162,
      "##言": 1163,
      "##ォ": 1164,
      "##樸": 1165,
      "##.": 1166,
      "##れ": 1167,
      "##る": 1168,
      "##空": 1169,
      "##選": 1170,
      "##唐": 1171,
      "##詩": 1172,
      "##助": 1173,
      "##道": 1174,
      "##微": 1175,
      "##機": 1176,
      "##თ": 1177,
      "##ვ": 1178,
      "##ɾ": 1179,
      "##顯": 1180,
      "##œ": 1181,
      "##ქ": 1182,
      "##ს": 1183,
      "##ნ": 1184,
      "##დ": 1185,
      "##ж": 1186,
      "##ذ": 1187,
      "##ي": 1188,
      "##ة": 1189,
      "##η": 1190,
      "##၂": 1191,
      "##၈": 1192,
      "##၇": 1193,
      "##州": 1194,
      "##サ": 1195,
      "##δ": 1196,
      "##付": 1197,
      "##き": 1198,
      "##º": 1199,
      "##豫": 1200,
      "##ɛ": 1201,
      "##田": 1202,
      "##ص": 1203,
      "##詔": 1204,
      "##制": 1205,
      "##宗": 1206,
      "##政": 1207,
      "##п": 1208,
      "##व": 1209,
      "##つ": 1210,
      "##せ": 1211,
      "##ん": 1212,
      "##再": 1213,
      "##愛": 1214,
      "##園": 1215,
      "##台": 1216,
      "##シ": 1217,
      "##日": 1218,
      "##い": 1219,
      "##っ": 1220,
      "##ب": 1221,
      "##ش": 1222,
      "##م": 1223,
      "##'": 1224,
      "##疆": 1225,
      "##繹": 1226,
      "##彩": 1227,
      "##ı": 1228,
      "##砲": 1229,
      "##部": 1230,
      "##-": 1231,
      "##@": 1232,
      "##主": 1233,
      "##გ": 1234,
      "##智": 1235,
      "##学": 1236,
      "##覺": 1237,
      "##ხ": 1238,
      "##竹": 1239,
      "##齋": 1240,
      "##箋": 1241,
      "##譜": 1242,
      "##ξ": 1243,
      "##ャ": 1244,
      "##モ": 1245,
      "##ン": 1246,
      "##ซ": 1247,
      "##殻": 1248,
      "##動": 1249,
      "##隊": 1250,
      "##ع": 1251,
      "##ネ": 1252,
      "##ョ": 1253,
      "##แ": 1254,
      "##ก": 1255,
      "##毅": 1256,
      "##ള": 1257,
      "##狐": 1258,
      "##レ": 1259,
      "##ツ": 1260,
      "##न": 1261,
      "##庆": 1262,
      "##河": 1263,
      "##番": 1264,
      "##宝": 1265,
      "##物": 1266,
      "##鋼": 1267,
      "##印": 1268,
      "##刷": 1269,
      "##利": 1270,
      "##为": 1271,
      "##θ": 1272,
      "##遇": 1273,
      "##ɜ": 1274,
      "##寶": 1275,
      "##อ": 1276,
      "##ษ": 1277,
      "##ฐ": 1278,
      "##其": 1279,
      "##琪": 1280,
      "##ʲ": 1281,
      "##緬": 1282,
      "##少": 1283,
      "##女": 1284,
      "##銃": 1285,
      "##瘡": 1286,
      "##円": 1287,
      "##寺": 1288,
      "##ʃ": 1289,
      "##ह": 1290,
      "##蝶": 1291,
      "##裝": 1292,
      "##क": 1293,
      "##去": 1294,
      "##思": 1295,
      "##出": 1296,
      "##珂": 1297,
      "##ʁ": 1298,
      "##י": 1299,
      "##ת": 1300,
      "##ש": 1301,
      "##ר": 1302,
      "##א": 1303,
      "##塘": 1304,
      "##ы": 1305,
      "##星": 1306,
      "##漢": 1307,
      "##古": 1308,
      "##堂": 1309,
      "##澤": 1310,
      "##技": 1311,
      "##ן": 1312,
      "##臂": 1313,
      "##膀": 1314,
      "##σ": 1315,
      "##υ": 1316,
      "##ܕ": 1317,
      "##ܝ": 1318,
      "##ܢ": 1319,
      "##ܬ": 1320,
      "##世": 1321,
      "##ɡ": 1322,
      "##３": 1323,
      "##ჲ": 1324,
      "##`": 1325,
      "##ゆ": 1326,
      "##ψ": 1327,
      "##瓊": 1328,
      "##錡": 1329,
      "##颜": 1330,
      "##望": 1331,
      "##خ": 1332,
      "##転": 1333,
      "##裁": 1334,
      "##判": 1335,
      "##န": 1336,
      "##γ": 1337,
      "##之": 1338,
      "##平": 1339,
      "##ح": 1340,
      "##ち": 1341,
      "##ゃ": 1342,
      "##ב": 1343,
      "##ם": 1344,
      "##す": 1345,
      "##ひ": 1346,
      "##と": 1347,
      "##汉": 1348,
      "##စ": 1349,
      "##ᵻ": 1350,
      "##ɔ": 1351,
      "##ण": 1352,
      "##ई": 1353,
      "##波": 1354,
      "##義": 1355,
      "##信": 1356,
      "##病": 1357,
      "##驗": 1358,
      "##方": 1359,
      "##聖": 1360,
      "##ਲ": 1361,
      "##ਹ": 1362,
      "##丙": 1363,
      "##大": 1364,
      "##二": 1365,
      "##ゥ": 1366,
      "##國": 1367,
      "##春": 1368,
      "##秋": 1369,
      "##後": 1370,
      "##集": 1371,
      "##誡": 1372,
      "##ะ": 1373,
      "##น": 1374,
      "##ף": 1375,
      "##背": 1376,
      "##旦": 1377,
      "##ပ": 1378,
      "##榮": 1379,
      "##κ": 1380,
      "##著": 1381,
      "##邦": 1382,
      "##昌": 1383,
      "##ロ": 1384,
      "##ょ": 1385,
      "##に": 1386,
      "##生": 1387,
      "##籠": 1388,
      "##行": 1389,
      "##广": 1390,
      "##ق": 1391,
      "##絵": 1392,
      "##誓": 1393,
      "##云": 1394,
      "##清": 1395,
      "##स": 1396,
      "##沂": 1397,
      "##法": 1398,
      "##必": 1399,
      "##稽": 1400,
      "##母": 1401,
      "##殿": 1402,
      "##こ": 1403,
      "##ᅮ": 1404,
      "##神": 1405,
      "##灵": 1406,
      "##宫": 1407,
      "##ס": 1408,
      "##命": 1409,
      "##を": 1410,
      "##解": 1411,
      "##放": 1412,
      "##軒": 1413,
      "##變": 1414,
      "##マ": 1415,
      "##ェ": 1416,
      "##ハ": 1417,
      "##တ": 1418,
      "##全": 1419,
      "##沙": 1420,
      "##ð": 1421,
      "##เ": 1422,
      "##ป": 1423,
      "##ტ": 1424,
      "##光": 1425,
      "##ɫ": 1426,
      "##定": 1427,
      "##辨": 1428,
      "##さ": 1429,
      "##祈": 1430,
      "##わ": 1431,
      "##ฮ": 1432,
      "##揺": 1433,
      "##ɐ": 1434,
      "##同": 1435,
      "##カ": 1436,
      "##ث": 1437,
      "##珙": 1438,
      "##ᅡ": 1439,
      "##ᆯ": 1440,
      "##翠": 1441,
      "##英": 1442,
      "##拉": 1443,
      "##ム": 1444,
      "##チ": 1445,
      "##天": 1446,
      "##府": 1447,
      "##є": 1448,
      "##憶": 1449,
      "##棘": 1450,
      "##,": 1451,
      "##秘": 1452,
      "##咲": 1453,
      "##安": 1454,
      "##良": 1455,
      "##畫": 1456,
      "##四": 1457,
      "##式": 1458,
      "##拳": 1459,
      "##名": 1460,
      "##מ": 1461,
      "##צ": 1462,
      "##ɳ": 1463,
      "##ʒ": 1464,
      "##来": 1465,
      "##挑": 1466,
      "##戦": 1467,
      "##者": 1468,
      "##記": 1469,
      "##я": 1470,
      "##芳": 1471,
      "##ল": 1472,
      "##ˌ": 1473,
      "##侗": 1474,
      "##霖": 1475,
      "##夫": 1476,
      "##贵": 1477,
      "##剛": 1478,
      "##兵": 1479,
      "##衛": 1480,
      "##八": 1481,
      "##處": 1482,
      "##士": 1483,
      "##玩": 1484,
      "##具": 1485,
      "##厂": 1486,
      "##劇": 1487,
      "##鉄": 1488,
      "##ノ": 1489,
      "##ʿ": 1490,
      "##হ": 1491,
      "##ჱ": 1492,
      "##ค": 1493,
      "##ต": 1494,
      "##律": 1495,
      "##ك": 1496,
      "##х": 1497,
      "##譌": 1498,
      "##勢": 1499,
      "##型": 1500,
      "##艦": 1501,
      "##巳": 1502,
      "##泣": 1503,
      "##蘄": 1504,
      "##錄": 1505,
      "##ग": 1506,
      "##甫": 1507,
      "##祠": 1508,
      "##雲": 1509,
      "##規": 1510,
      "##頒": 1511,
      "##小": 1512,
      "##學": 1513,
      "##ɽ": 1514,
      "##み": 1515,
      "##真": 1516,
      "##似": 1517,
      "##術": 1518,
      "##尾": 1519,
      "##譚": 1520,
      "##灼": 1521,
      "##熱": 1522,
      "##市": 1523,
      "##運": 1524,
      "##乙": 1525,
      "##憑": 1526,
      "##體": 1527,
      "##ჳ": 1528,
      "##心": 1529,
      "##成": 1530,
      "##セ": 1531,
      "##オ": 1532,
      "##г": 1533,
      "##里": 1534,
      "##ء": 1535,
      "##ミ": 1536,
      "##所": 1537,
      "##彌": 1538,
      "##遠": 1539,
      "##ܠ": 1540,
      "##ܗ": 1541,
      "##ܐ": 1542,
      "##м": 1543,
      "##ณ": 1544,
      "##ม": 1545,
      "##у": 1546,
      "##足": 1547,
      "##跡": 1548,
      "##防": 1549,
      "##御": 1550,
      "##战": 1551,
      "th": 1552,
      "the": 1553,
      "##er": 1554,
      "##in": 1555,
      "##ed": 1556,
      "##on": 1557,
      "##nd": 1558,
      "##es": 1559,
      "##at": 1560,
      "##or": 1561,
      "##en": 1562,
      "##ar": 1563,
      "in": 1564,
      "of": 1565,
      "##an": 1566,
      "##al": 1567,
      "##it": 1568,
      "##ing": 1569,
      "and": 1570,
      "##as": 1571,
      "##is": 1572,
      "to": 1573,
      "##ic": 1574,
      "##ou": 1575,
      "##ion": 1576,
      "##re": 1577,
      "##om": 1578,
      "##el": 1579,
      "##il": 1580,
      "##ent": 1581,
      "##ec": 1582,
      "##th": 1583,
      "##st": 1584,
      "##am": 1585,
      "##ur": 1586,
      "##ad": 1587,
      "##ac": 1588,
      "on": 1589,
      "##ol": 1590,
      "##et": 1591,
      "was": 1592,
      "st": 1593,
      "##ro": 1594,
      "for": 1595,
      "##ly": 1596,
      "##le": 1597,
      "##ir": 1598,
      "as": 1599,
      "wh": 1600,
      "##iv": 1601,
      "##id": 1602,
      "##ter": 1603,
      "##ig": 1604,
      "@-": 1605,
      "@-@": 1606,
      "re": 1607,
      "##ith": 1608,
      "##ow": 1609,
      "##ay": 1610,
      "be": 1611,
      "al": 1612,
      "##im": 1613,
      "##ch": 1614,
      "with": 1615,
      "##ation": 1616,
      "that": 1617,
      "##ut": 1618,
      "##em": 1619,
      "it": 1620,
      "##ers": 1621,
      "is": 1622,
      "con": 1623,
      "##ot": 1624,
      "fr": 1625,
      "at": 1626,
      "by": 1627,
      "an": 1628,
      "##us": 1629,
      "he": 1630,
      "ch": 1631,
      "##ul": 1632,
      "##ce": 1633,
      "##ver": 1634,
      "##os": 1635,
      "##and": 1636,
      "##est": 1637,
      "##ain": 1638,
      "sh": 1639,
      "19": 1640,
      "##ag": 1641,
      "com": 1642,
      "##av": 1643,
      "his": 1644,
      "##um": 1645,
      "##ere": 1646,
      "from": 1647,
      "##od": 1648,
      "se": 1649,
      "##ct": 1650,
      "su": 1651,
      "##op": 1652,
      "de": 1653,
      "##ess": 1654,
      "pro": 1655,
      "##ri": 1656,
      "##ap": 1657,
      "##ist": 1658,
      "20": 1659,
      "##un": 1660,
      "##ect": 1661,
      "##ies": 1662,
      "##igh": 1663,
      "ne": 1664,
      "were": 1665,
      "##if": 1666,
      "##ill": 1667,
      "ar": 1668,
      "or": 1669,
      "pl": 1670,
      "##ak": 1671,
      "##all": 1672,
      "##ong": 1673,
      "##ich": 1674,
      "##ate": 1675,
      "##ld": 1676,
      "##ab": 1677,
      "##ard": 1678,
      "##ort": 1679,
      "un": 1680,
      "##oc": 1681,
      "##art": 1682,
      "ex": 1683,
      "##pp": 1684,
      "##ber": 1685,
      "##ant": 1686,
      "##ther": 1687,
      "##ish": 1688,
      "##ity": 1689,
      "##ated": 1690,
      "##gh": 1691,
      "##ud": 1692,
      "tr": 1693,
      "pr": 1694,
      "le": 1695,
      "sp": 1696,
      "##se": 1697,
      "##ame": 1698,
      "##ive": 1699,
      "are": 1700,
      "##ack": 1701,
      "##ore": 1702,
      "had": 1703,
      "##ie": 1704,
      "en": 1705,
      "##ian": 1706,
      "##ge": 1707,
      "##ough": 1708,
      "##ear": 1709,
      "which": 1710,
      "##ast": 1711,
      "##ov": 1712,
      "##our": 1713,
      "##ound": 1714,
      "##ip": 1715,
      "##ell": 1716,
      "not": 1717,
      "##pt": 1718,
      "##ment": 1719,
      "af": 1720,
      "rec": 1721,
      "##ial": 1722,
      "##ia": 1723,
      "##ine": 1724,
      "##ost": 1725,
      "##ust": 1726,
      "##rit": 1727,
      "##ight": 1728,
      "##qu": 1729,
      "##ord": 1730,
      "##oun": 1731,
      "##ical": 1732,
      "comp": 1733,
      "##ary": 1734,
      "cl": 1735,
      "##ave": 1736,
      "fir": 1737,
      "##cc": 1738,
      "ad": 1739,
      "this": 1740,
      "but": 1741,
      "##og": 1742,
      "##out": 1743,
      "200": 1744,
      "##cl": 1745,
      "her": 1746,
      "tw": 1747,
      "wor": 1748,
      "##ous": 1749,
      "int": 1750,
      "##ach": 1751,
      "cont": 1752,
      "their": 1753,
      "sc": 1754,
      "first": 1755,
      "##ions": 1756,
      "bo": 1757,
      "ab": 1758,
      "its": 1759,
      "man": 1760,
      "gr": 1761,
      "am": 1762,
      "##so": 1763,
      "after": 1764,
      "##ure": 1765,
      "##ould": 1766,
      "##ue": 1767,
      "##ra": 1768,
      "##ome": 1769,
      "##per": 1770,
      "one": 1771,
      "all": 1772,
      "##oll": 1773,
      "per": 1774,
      "also": 1775,
      "res": 1776,
      "they": 1777,
      "##ass": 1778,
      "##ide": 1779,
      "##ath": 1780,
      "us": 1781,
      "comm": 1782,
      "##ok": 1783,
      "##ign": 1784,
      "##ub": 1785,
      "##00": 1786,
      "##ater": 1787,
      "new": 1788,
      "##ire": 1789,
      "two": 1790,
      "tim": 1791,
      "##age": 1792,
      "rel": 1793,
      "mar": 1794,
      "##ond": 1795,
      "##ru": 1796,
      "fe": 1797,
      "##orm": 1798,
      "##own": 1799,
      "ag": 1800,
      "have": 1801,
      "des": 1802,
      "##ry": 1803,
      "##ree": 1804,
      "##ence": 1805,
      "ser": 1806,
      "has": 1807,
      "been": 1808,
      "im": 1809,
      "bec": 1810,
      "##pl": 1811,
      "@.": 1812,
      "@.@": 1813,
      "part": 1814,
      "app": 1815,
      "##ans": 1816,
      "##uring": 1817,
      "car": 1818,
      "dis": 1819,
      "##ally": 1820,
      "go": 1821,
      "18": 1822,
      "play": 1823,
      "##ance": 1824,
      "##ile": 1825,
      "##ition": 1826,
      "##iz": 1827,
      "year": 1828,
      "##ely": 1829,
      "##land": 1830,
      "off": 1831,
      "ro": 1832,
      "me": 1833,
      "ev": 1834,
      "##ations": 1835,
      "##ff": 1836,
      "##du": 1837,
      "we": 1838,
      "##ult": 1839,
      "who": 1840,
      "att": 1841,
      "over": 1842,
      "##ount": 1843,
      "##ade": 1844,
      "br": 1845,
      "##clud": 1846,
      "##act": 1847,
      "##ory": 1848,
      "##ens": 1849,
      "nor": 1850,
      "201": 1851,
      "##ang": 1852,
      "##ib": 1853,
      "##end": 1854,
      "she": 1855,
      "fin": 1856,
      "##wn": 1857,
      "@,": 1858,
      "@,@": 1859,
      "##ik": 1860,
      "out": 1861,
      "up": 1862,
      "during": 1863,
      "pre": 1864,
      "inter": 1865,
      "fl": 1866,
      "ind": 1867,
      "##ric": 1868,
      "##urn": 1869,
      "dec": 1870,
      "co": 1871,
      "other": 1872,
      "##pr": 1873,
      "##ember": 1874,
      "includ": 1875,
      "cent": 1876,
      "##ace": 1877,
      "##ite": 1878,
      "when": 1879,
      "time": 1880,
      "ear": 1881,
      "##ice": 1882,
      "##we": 1883,
      "can": 1884,
      "##ks": 1885,
      "into": 1886,
      "##nder": 1887,
      "##ail": 1888,
      "sou": 1889,
      "sec": 1890,
      "##one": 1891,
      "##ward": 1892,
      "##ents": 1893,
      "##int": 1894,
      "##ced": 1895,
      "##ose": 1896,
      "war": 1897,
      "##ied": 1898,
      "##amp": 1899,
      "more": 1900,
      "bl": 1901,
      "##ces": 1902,
      "song": 1903,
      "form": 1904,
      "##man": 1905,
      "act": 1906,
      "would": 1907,
      "te": 1908,
      "##port": 1909,
      "##ited": 1910,
      "him": 1911,
      "po": 1912,
      "##able": 1913,
      "##ason": 1914,
      "high": 1915,
      "##ase": 1916,
      "par": 1917,
      "char": 1918,
      "most": 1919,
      "##te": 1920,
      "##ings": 1921,
      "##ased": 1922,
      "##iss": 1923,
      "##aw": 1924,
      "##ph": 1925,
      "cons": 1926,
      "##ates": 1927,
      "jo": 1928,
      "kn": 1929,
      "bet": 1930,
      "no": 1931,
      "fil": 1932,
      "rem": 1933,
      "##rib": 1934,
      "ass": 1935,
      "some": 1936,
      "col": 1937,
      "##way": 1938,
      "##ious": 1939,
      "may": 1940,
      "mus": 1941,
      "##ral": 1942,
      "acc": 1943,
      "##att": 1944,
      "##ict": 1945,
      "while": 1946,
      "thr": 1947,
      "##ix": 1948,
      "north": 1949,
      "##ors": 1950,
      "##ild": 1951,
      "reg": 1952,
      "##les": 1953,
      "game": 1954,
      "under": 1955,
      "them": 1956,
      "only": 1957,
      "##gan": 1958,
      "##ey": 1959,
      "there": 1960,
      "##form": 1961,
      "##vel": 1962,
      "gen": 1963,
      "##gr": 1964,
      "##ake": 1965,
      "##als": 1966,
      "three": 1967,
      "em": 1968,
      "##fer": 1969,
      "again": 1970,
      "##ved": 1971,
      "how": 1972,
      "##aus": 1973,
      "film": 1974,
      "pe": 1975,
      "##ubl": 1976,
      "##ick": 1977,
      "##old": 1978,
      "later": 1979,
      "##ood": 1980,
      "##eld": 1981,
      "##ft": 1982,
      "through": 1983,
      "##ollow": 1984,
      "record": 1985,
      "bu": 1986,
      "##ind": 1987,
      "##ction": 1988,
      "el": 1989,
      "eng": 1990,
      "about": 1991,
      "day": 1992,
      "follow": 1993,
      "south": 1994,
      "##ock": 1995,
      "##eric": 1996,
      "199": 1997,
      "##ered": 1998,
      "##ween": 1999,
      "mon": 2000,
      "between": 2001,
      "end": 2002,
      "##reat": 2003,
      "def": 2004,
      "ma": 2005,
      "work": 2006,
      "##ational": 2007,
      "ac": 2008,
      "##ons": 2009,
      "##ug": 2010,
      "##ision": 2011,
      "ret": 2012,
      "season": 2013,
      "pos": 2014,
      "##ual": 2015,
      "sy": 2016,
      "than": 2017,
      "num": 2018,
      "##hip": 2019,
      "##olog": 2020,
      "produ": 2021,
      "sub": 2022,
      "so": 2023,
      "city": 2024,
      "lar": 2025,
      "##ters": 2026,
      "americ": 2027,
      "rev": 2028,
      "gu": 2029,
      "##fore": 2030,
      "second": 2031,
      "spec": 2032,
      "mov": 2033,
      "##iew": 2034,
      "four": 2035,
      "pol": 2036,
      "##ular": 2037,
      "where": 2038,
      "min": 2039,
      "writ": 2040,
      "air": 2041,
      "##orn": 2042,
      "ph": 2043,
      "sch": 2044,
      "do": 2045,
      "cap": 2046,
      "rele": 2047,
      "##hn": 2048,
      "bro": 2049,
      "made": 2050,
      "##ames": 2051,
      "##ating": 2052,
      "pres": 2053,
      "sa": 2054,
      "##ss": 2055,
      "dr": 2056,
      "world": 2057,
      "sur": 2058,
      "##ished": 2059,
      "before": 2060,
      "##ery": 2061,
      "##ury": 2062,
      "publ": 2063,
      "batt": 2064,
      "str": 2065,
      "alb": 2066,
      "##ron": 2067,
      "arm": 2068,
      "##ived": 2069,
      "sever": 2070,
      "##ines": 2071,
      "000": 2072,
      "supp": 2073,
      "##ike": 2074,
      "##tern": 2075,
      "sm": 2076,
      "##let": 2077,
      "such": 2078,
      "these": 2079,
      "qu": 2080,
      "##itt": 2081,
      "inc": 2082,
      "used": 2083,
      "art": 2084,
      "back": 2085,
      "##ert": 2086,
      "call": 2087,
      "ep": 2088,
      "gener": 2089,
      "div": 2090,
      "##ever": 2091,
      "loc": 2092,
      "cr": 2093,
      "album": 2094,
      "both": 2095,
      "##ific": 2096,
      "being": 2097,
      "hist": 2098,
      "10": 2099,
      "series": 2100,
      "##ning": 2101,
      "count": 2102,
      "brit": 2103,
      "12": 2104,
      "##ily": 2105,
      "##ics": 2106,
      "found": 2107,
      "##ole": 2108,
      "ste": 2109,
      "##io": 2110,
      "pop": 2111,
      "years": 2112,
      "##ane": 2113,
      "sing": 2114,
      "##urch": 2115,
      "trans": 2116,
      "inv": 2117,
      "##ank": 2118,
      "many": 2119,
      "##rop": 2120,
      "##ained": 2121,
      "set": 2122,
      "op": 2123,
      "##atch": 2124,
      "##ected": 2125,
      "number": 2126,
      "add": 2127,
      "however": 2128,
      "aust": 2129,
      "dire": 2130,
      "against": 2131,
      "team": 2132,
      "bel": 2133,
      "well": 2134,
      "inf": 2135,
      "##ins": 2136,
      "sim": 2137,
      "##velop": 2138,
      "state": 2139,
      "several": 2140,
      "stud": 2141,
      "long": 2142,
      "oper": 2143,
      "##air": 2144,
      "will": 2145,
      "early": 2146,
      "rece": 2147,
      "then": 2148,
      "mill": 2149,
      "##ife": 2150,
      "##ement": 2151,
      "##ised": 2152,
      "##iver": 2153,
      "##ier": 2154,
      "##ection": 2155,
      "star": 2156,
      "##ince": 2157,
      "mil": 2158,
      "##oup": 2159,
      "main": 2160,
      "head": 2161,
      "ter": 2162,
      "##oy": 2163,
      "##ause": 2164,
      "##other": 2165,
      "met": 2166,
      "##its": 2167,
      "##yl": 2168,
      "perform": 2169,
      "sl": 2170,
      "##ale": 2171,
      "including": 2172,
      "##ities": 2173,
      "##ten": 2174,
      "cro": 2175,
      "develop": 2176,
      "##ode": 2177,
      "orig": 2178,
      "became": 2179,
      "contr": 2180,
      "##ve": 2181,
      "##ird": 2182,
      "appear": 2183,
      "known": 2184,
      "port": 2185,
      "united": 2186,
      "inst": 2187,
      "##az": 2188,
      "##ise": 2189,
      "desc": 2190,
      "##vern": 2191,
      "est": 2192,
      "epis": 2193,
      "16": 2194,
      "##ower": 2195,
      "ob": 2196,
      "##ures": 2197,
      "cre": 2198,
      "charac": 2199,
      "##ton": 2200,
      "198": 2201,
      "direct": 2202,
      "land": 2203,
      "music": 2204,
      "##ful": 2205,
      "contin": 2206,
      "##ield": 2207,
      "origin": 2208,
      "194": 2209,
      "15": 2210,
      "nov": 2211,
      "show": 2212,
      "##though": 2213,
      "although": 2214,
      "##red": 2215,
      "ed": 2216,
      "govern": 2217,
      "const": 2218,
      "##ann": 2219,
      "crit": 2220,
      "dist": 2221,
      "11": 2222,
      "following": 2223,
      "##ern": 2224,
      "down": 2225,
      "##0s": 2226,
      "##uch": 2227,
      "lead": 2228,
      "along": 2229,
      "##til": 2230,
      "##are": 2231,
      "17": 2232,
      "compan": 2233,
      "american": 2234,
      "near": 2235,
      "##ought": 2236,
      "austral": 2237,
      "##iet": 2238,
      "##els": 2239,
      "dep": 2240,
      "##ork": 2241,
      "##ep": 2242,
      "##au": 2243,
      "ger": 2244,
      "jun": 2245,
      "sign": 2246,
      "##ool": 2247,
      "ship": 2248,
      "ext": 2249,
      "began": 2250,
      "##ative": 2251,
      "bar": 2252,
      "##led": 2253,
      "##elf": 2254,
      "run": 2255,
      "church": 2256,
      "##emb": 2257,
      "century": 2258,
      "like": 2259,
      "##ah": 2260,
      "british": 2261,
      "old": 2262,
      "did": 2263,
      "lo": 2264,
      "##son": 2265,
      "prov": 2266,
      "ins": 2267,
      "197": 2268,
      "ju": 2269,
      "design": 2270,
      "john": 2271,
      "could": 2272,
      "##uc": 2273,
      "##ued": 2274,
      "196": 2275,
      "##ather": 2276,
      "ord": 2277,
      "open": 2278,
      "disc": 2279,
      "##ject": 2280,
      "group": 2281,
      "pers": 2282,
      "##ually": 2283,
      "##ized": 2284,
      "##ession": 2285,
      "##ains": 2286,
      "dif": 2287,
      "six": 2288,
      "var": 2289,
      "##iam": 2290,
      "area": 2291,
      "because": 2292,
      "##ined": 2293,
      "##ont": 2294,
      "##aph": 2295,
      "##ivers": 2296,
      "until": 2297,
      "said": 2298,
      "west": 2299,
      "return": 2300,
      "fam": 2301,
      "##ient": 2302,
      "ann": 2303,
      "peop": 2304,
      "called": 2305,
      "national": 2306,
      "states": 2307,
      "##aking": 2308,
      "feat": 2309,
      "km": 2310,
      "resp": 2311,
      "episode": 2312,
      "##ull": 2313,
      "adv": 2314,
      "prev": 2315,
      "describ": 2316,
      "maj": 2317,
      "##ley": 2318,
      "attack": 2319,
      "dam": 2320,
      "##ruct": 2321,
      "offic": 2322,
      "ever": 2323,
      "##ured": 2324,
      "start": 2325,
      "since": 2326,
      "king": 2327,
      "road": 2328,
      "##ange": 2329,
      "##yp": 2330,
      "##eng": 2331,
      "##ments": 2332,
      "any": 2333,
      "pass": 2334,
      "around": 2335,
      "exp": 2336,
      "##row": 2337,
      "aug": 2338,
      "people": 2339,
      "red": 2340,
      "##gest": 2341,
      "##ists": 2342,
      "win": 2343,
      "##xt": 2344,
      "##res": 2345,
      "##ope": 2346,
      "##thern": 2347,
      "command": 2348,
      "##enn": 2349,
      "##ided": 2350,
      "hel": 2351,
      "mod": 2352,
      "##amed": 2353,
      "##ccess": 2354,
      "major": 2355,
      "each": 2356,
      "august": 2357,
      "you": 2358,
      "##up": 2359,
      "wee": 2360,
      "ra": 2361,
      "##oss": 2362,
      "sept": 2363,
      "##ially": 2364,
      "river": 2365,
      "support": 2366,
      "##ism": 2367,
      "##ible": 2368,
      "##ele": 2369,
      "##eer": 2370,
      "occ": 2371,
      "small": 2372,
      "september": 2373,
      "13": 2374,
      "same": 2375,
      "serv": 2376,
      "##oot": 2377,
      "conc": 2378,
      "eff": 2379,
      "imp": 2380,
      "own": 2381,
      "chr": 2382,
      "miss": 2383,
      "five": 2384,
      "##ove": 2385,
      "released": 2386,
      "##ets": 2387,
      "##osed": 2388,
      "million": 2389,
      "rep": 2390,
      "use": 2391,
      "##ilt": 2392,
      "camp": 2393,
      "##cept": 2394,
      "storm": 2395,
      "med": 2396,
      "##ently": 2397,
      "##ium": 2398,
      "point": 2399,
      "life": 2400,
      "another": 2401,
      "company": 2402,
      "best": 2403,
      "class": 2404,
      "##eter": 2405,
      "german": 2406,
      "id": 2407,
      "##wards": 2408,
      "school": 2409,
      "##aced": 2410,
      "book": 2411,
      "fur": 2412,
      "##ina": 2413,
      "##ues": 2414,
      "##ts": 2415,
      "##ouse": 2416,
      "##stem": 2417,
      "complet": 2418,
      "gun": 2419,
      "##ys": 2420,
      "arr": 2421,
      "tem": 2422,
      "town": 2423,
      "east": 2424,
      "large": 2425,
      "just": 2426,
      "##ash": 2427,
      "public": 2428,
      "gre": 2429,
      "##ident": 2430,
      "conf": 2431,
      "##anc": 2432,
      "##omin": 2433,
      "success": 2434,
      "la": 2435,
      "mid": 2436,
      "final": 2437,
      "tri": 2438,
      "##ted": 2439,
      "consid": 2440,
      "##oman": 2441,
      "##aining": 2442,
      "report": 2443,
      "prot": 2444,
      "great": 2445,
      "rout": 2446,
      "wal": 2447,
      "bre": 2448,
      "##ians": 2449,
      "coll": 2450,
      "line": 2451,
      "##ob": 2452,
      "cour": 2453,
      "195": 2454,
      "result": 2455,
      "##ty": 2456,
      "##ology": 2457,
      "june": 2458,
      "system": 2459,
      "character": 2460,
      "mag": 2461,
      "##ats": 2462,
      "government": 2463,
      "if": 2464,
      "av": 2465,
      "what": 2466,
      "##ution": 2467,
      "turn": 2468,
      "##ropical": 2469,
      "due": 2470,
      "##ms": 2471,
      "arch": 2472,
      "##ives": 2473,
      "##uth": 2474,
      "##app": 2475,
      "cor": 2476,
      "oct": 2477,
      "191": 2478,
      "##ark": 2479,
      "jan": 2480,
      "14": 2481,
      "rest": 2482,
      "##ended": 2483,
      "late": 2484,
      "##ble": 2485,
      "tit": 2486,
      "eur": 2487,
      "island": 2488,
      "193": 2489,
      "##aving": 2490,
      "##ately": 2491,
      "short": 2492,
      "##ural": 2493,
      "games": 2494,
      "##ene": 2495,
      "mount": 2496,
      "##avy": 2497,
      "gl": 2498,
      "now": 2499,
      "division": 2500,
      "my": 2501,
      "##ically": 2502,
      "history": 2503,
      "hum": 2504,
      "way": 2505,
      "build": 2506,
      "men": 2507,
      "even": 2508,
      "##ired": 2509,
      "mark": 2510,
      "##uary": 2511,
      "##ony": 2512,
      "ent": 2513,
      "black": 2514,
      "##ored": 2515,
      "last": 2516,
      "dem": 2517,
      "##ober": 2518,
      "stre": 2519,
      "water": 2520,
      "took": 2521,
      "reach": 2522,
      "##over": 2523,
      "##ute": 2524,
      "general": 2525,
      "har": 2526,
      "october": 2527,
      "##ified": 2528,
      "march": 2529,
      "ge": 2530,
      "univers": 2531,
      "home": 2532,
      "##ague": 2533,
      "partic": 2534,
      "name": 2535,
      "vide": 2536,
      "##lish": 2537,
      "child": 2538,
      "es": 2539,
      "hal": 2540,
      "##und": 2541,
      "del": 2542,
      "##by": 2543,
      "within": 2544,
      "##ball": 2545,
      "received": 2546,
      "death": 2547,
      "track": 2548,
      "july": 2549,
      "##erv": 2550,
      "much": 2551,
      "sk": 2552,
      "ii": 2553,
      "review": 2554,
      "vers": 2555,
      "top": 2556,
      "capt": 2557,
      "played": 2558,
      "ref": 2559,
      "##ink": 2560,
      "##raft": 2561,
      "accord": 2562,
      "incre": 2563,
      "##ility": 2564,
      "##empt": 2565,
      "squ": 2566,
      "##eal": 2567,
      "##iving": 2568,
      "##ead": 2569,
      "match": 2570,
      "ke": 2571,
      "vis": 2572,
      "conv": 2573,
      "##ants": 2574,
      "intern": 2575,
      "25": 2576,
      "bas": 2577,
      "##ops": 2578,
      "##ae": 2579,
      "##ench": 2580,
      "##ogr": 2581,
      "january": 2582,
      "##aged": 2583,
      "organ": 2584,
      "##ech": 2585,
      "described": 2586,
      "tropical": 2587,
      "ant": 2588,
      "##ages": 2589,
      "power": 2590,
      "christ": 2591,
      "##aim": 2592,
      "third": 2593,
      "leg": 2594,
      "ele": 2595,
      "included": 2596,
      "##ides": 2597,
      "sw": 2598,
      "according": 2599,
      "##ively": 2600,
      "kill": 2601,
      "dest": 2602,
      "single": 2603,
      "30": 2604,
      "appro": 2605,
      "person": 2606,
      "won": 2607,
      "##ting": 2608,
      "wind": 2609,
      "event": 2610,
      "##dom": 2611,
      "champ": 2612,
      "vict": 2613,
      "##gin": 2614,
      "family": 2615,
      "apr": 2616,
      "typ": 2617,
      "times": 2618,
      "##apan": 2619,
      "attempt": 2620,
      "allow": 2621,
      "based": 2622,
      "##ner": 2623,
      "april": 2624,
      "##ody": 2625,
      "##..": 2626,
      "##eder": 2627,
      "left": 2628,
      "species": 2629,
      "##ling": 2630,
      "japan": 2631,
      "poss": 2632,
      "milit": 2633,
      "progr": 2634,
      "video": 2635,
      "hur": 2636,
      "##ke": 2637,
      "##ital": 2638,
      "club": 2639,
      "built": 2640,
      "##ush": 2641,
      "##ption": 2642,
      "november": 2643,
      "##rote": 2644,
      "league": 2645,
      "named": 2646,
      "##itions": 2647,
      "place": 2648,
      "##atter": 2649,
      "##iod": 2650,
      "##itch": 2651,
      "...": 2652,
      "wrote": 2653,
      "prom": 2654,
      "differ": 2655,
      "##ograph": 2656,
      "list": 2657,
      "##ew": 2658,
      "addition": 2659,
      "previous": 2660,
      "further": 2661,
      "ang": 2662,
      "york": 2663,
      "route": 2664,
      "expl": 2665,
      "eas": 2666,
      "cal": 2667,
      "belie": 2668,
      "period": 2669,
      "light": 2670,
      "commun": 2671,
      "estab": 2672,
      "hand": 2673,
      "those": 2674,
      "white": 2675,
      "##akes": 2676,
      "##ipp": 2677,
      "##par": 2678,
      "val": 2679,
      "##ai": 2680,
      "very": 2681,
      "##ances": 2682,
      "common": 2683,
      "##ham": 2684,
      "sol": 2685,
      "pat": 2686,
      "soc": 2687,
      "december": 2688,
      "story": 2689,
      "##aur": 2690,
      "##ention": 2691,
      "##ulation": 2692,
      "god": 2693,
      "led": 2694,
      "house": 2695,
      "##med": 2696,
      "##ven": 2697,
      "month": 2698,
      "enter": 2699,
      "battal": 2700,
      "##uss": 2701,
      "foot": 2702,
      "forces": 2703,
      "next": 2704,
      "##ature": 2705,
      "force": 2706,
      "requ": 2707,
      "sent": 2708,
      "##ll": 2709,
      "##ilar": 2710,
      "##amb": 2711,
      "##ren": 2712,
      "army": 2713,
      "far": 2714,
      "##ler": 2715,
      "##ps": 2716,
      "auth": 2717,
      "cur": 2718,
      "post": 2719,
      "though": 2720,
      "##ese": 2721,
      "tour": 2722,
      "repl": 2723,
      "original": 2724,
      "repr": 2725,
      "french": 2726,
      "192": 2727,
      "##ards": 2728,
      "band": 2729,
      "##ison": 2730,
      "still": 2731,
      "vill": 2732,
      "##idge": 2733,
      "among": 2734,
      "local": 2735,
      "week": 2736,
      "rad": 2737,
      "##ime": 2738,
      "field": 2739,
      "init": 2740,
      "##iven": 2741,
      "##que": 2742,
      "##bert": 2743,
      "military": 2744,
      "europe": 2745,
      "100": 2746,
      "opp": 2747,
      "##ense": 2748,
      "histor": 2749,
      "make": 2750,
      "battle": 2751,
      "similar": 2752,
      "side": 2753,
      "##ness": 2754,
      "england": 2755,
      "youn": 2756,
      "##por": 2757,
      "##ruction": 2758,
      "cy": 2759,
      "mer": 2760,
      "stand": 2761,
      "fire": 2762,
      "came": 2763,
      "view": 2764,
      "tot": 2765,
      "law": 2766,
      "##min": 2767,
      "2010": 2768,
      "##ences": 2769,
      "##aken": 2770,
      "present": 2771,
      "som": 2772,
      "memb": 2773,
      "role": 2774,
      "real": 2775,
      "cle": 2776,
      "##ience": 2777,
      "university": 2778,
      "sold": 2779,
      "sug": 2780,
      "2008": 2781,
      "former": 2782,
      "##aff": 2783,
      "##mer": 2784,
      "super": 2785,
      "rock": 2786,
      "few": 2787,
      "player": 2788,
      "cross": 2789,
      "low": 2790,
      "##ars": 2791,
      "continued": 2792,
      "moved": 2793,
      "right": 2794,
      "plan": 2795,
      "career": 2796,
      "iss": 2797,
      "park": 2798,
      "say": 2799,
      "##side": 2800,
      "##bo": 2801,
      "exper": 2802,
      "held": 2803,
      "deb": 2804,
      "2009": 2805,
      "##iation": 2806,
      "##ger": 2807,
      "tele": 2808,
      "##ior": 2809,
      "##ott": 2810,
      "##ission": 2811,
      "bus": 2812,
      "##inc": 2813,
      "##ross": 2814,
      "beh": 2815,
      "##ength": 2816,
      "fre": 2817,
      "##ged": 2818,
      "##na": 2819,
      "##ects": 2820,
      "every": 2821,
      "songs": 2822,
      "hurric": 2823,
      "polit": 2824,
      "caus": 2825,
      "pri": 2826,
      "##gy": 2827,
      "without": 2828,
      "spe": 2829,
      "order": 2830,
      "##line": 2831,
      "import": 2832,
      "##ival": 2833,
      "assoc": 2834,
      "obs": 2835,
      "strong": 2836,
      "half": 2837,
      "award": 2838,
      "often": 2839,
      "infl": 2840,
      "bill": 2841,
      "##uted": 2842,
      "coun": 2843,
      "brig": 2844,
      "surv": 2845,
      "considered": 2846,
      "night": 2847,
      "##sh": 2848,
      "##iment": 2849,
      "trad": 2850,
      "see": 2851,
      "production": 2852,
      "##aster": 2853,
      "tre": 2854,
      "county": 2855,
      "members": 2856,
      "cast": 2857,
      "##read": 2858,
      "roy": 2859,
      "claim": 2860,
      "days": 2861,
      "##elt": 2862,
      "mo": 2863,
      "mor": 2864,
      "rich": 2865,
      "det": 2866,
      "21": 2867,
      "comb": 2868,
      "press": 2869,
      "desp": 2870,
      "position": 2871,
      "champions": 2872,
      "##wh": 2873,
      "##enc": 2874,
      "level": 2875,
      "##ensive": 2876,
      "prof": 2877,
      "repres": 2878,
      "highway": 2879,
      "feder": 2880,
      "2007": 2881,
      "##yle": 2882,
      "##ared": 2883,
      "suggest": 2884,
      "##thing": 2885,
      "##ung": 2886,
      "never": 2887,
      "release": 2888,
      "23": 2889,
      "take": 2890,
      "refer": 2891,
      "tro": 2892,
      "less": 2893,
      "defe": 2894,
      "project": 2895,
      "24": 2896,
      "##ister": 2897,
      "mich": 2898,
      "##thers": 2899,
      "recorded": 2900,
      "having": 2901,
      "fort": 2902,
      "##ories": 2903,
      "stat": 2904,
      "international": 2905,
      "scient": 2906,
      "lost": 2907,
      "##bs": 2908,
      "##ots": 2909,
      "##ones": 2910,
      "##bru": 2911,
      "chang": 2912,
      "battalion": 2913,
      "hurricane": 2914,
      "##yn": 2915,
      "##ret": 2916,
      "##ying": 2917,
      "##estern": 2918,
      "chart": 2919,
      "2011": 2920,
      "total": 2921,
      "different": 2922,
      "sal": 2923,
      "frie": 2924,
      "written": 2925,
      "fle": 2926,
      "prop": 2927,
      "bur": 2928,
      "find": 2929,
      "##ple": 2930,
      "##augh": 2931,
      "help": 2932,
      "22": 2933,
      "love": 2934,
      "sum": 2935,
      "##ves": 2936,
      "invol": 2937,
      "don": 2938,
      "good": 2939,
      "pal": 2940,
      "despite": 2941,
      "##iter": 2942,
      "febru": 2943,
      "friend": 2944,
      "february": 2945,
      "development": 2946,
      "2012": 2947,
      "published": 2948,
      "australian": 2949,
      "ships": 2950,
      "author": 2951,
      "##ices": 2952,
      "2006": 2953,
      "english": 2954,
      "26": 2955,
      "pa": 2956,
      "control": 2957,
      "compet": 2958,
      "throughout": 2959,
      "##ize": 2960,
      "jack": 2961,
      "##vision": 2962,
      "phil": 2963,
      "##itar": 2964,
      "manag": 2965,
      "cover": 2966,
      "central": 2967,
      "##osp": 2968,
      "cult": 2969,
      "sound": 2970,
      "litt": 2971,
      "country": 2972,
      "eight": 2973,
      "##ada": 2974,
      "pur": 2975,
      "northern": 2976,
      "vi": 2977,
      "##der": 2978,
      "service": 2979,
      "particular": 2980,
      "free": 2981,
      "earl": 2982,
      "little": 2983,
      "gold": 2984,
      "whe": 2985,
      "##ploy": 2986,
      "title": 2987,
      "equ": 2988,
      "##rodu": 2989,
      "##raw": 2990,
      "southern": 2991,
      "modern": 2992,
      "aff": 2993,
      "represent": 2994,
      "australia": 2995,
      "ten": 2996,
      "ball": 2997,
      "##press": 2998,
      "reported": 2999,
      "destro": 3000,
      "site": 3001,
      "become": 3002,
      "lim": 3003,
      "ground": 3004,
      "popular": 3005,
      "ft": 3006,
      "##ising": 3007,
      "##ring": 3008,
      "want": 3009,
      "##ried": 3010,
      "sit": 3011,
      "produced": 3012,
      "program": 3013,
      "##ax": 3014,
      "royal": 3015,
      "region": 3016,
      "given": 3017,
      "##aces": 3018,
      "##sequ": 3019,
      "##ours": 3020,
      "signific": 3021,
      "influ": 3022,
      "gave": 3023,
      "version": 3024,
      "##atic": 3025,
      "court": 3026,
      "front": 3027,
      "hor": 3028,
      "son": 3029,
      "ha": 3030,
      "lab": 3031,
      "live": 3032,
      "##oint": 3033,
      "championship": 3034,
      "western": 3035,
      "##br": 3036,
      "##ably": 3037,
      "28": 3038,
      "once": 3039,
      "##ailed": 3040,
      "struct": 3041,
      "##ument": 3042,
      "##ne": 3043,
      "afric": 3044,
      "coast": 3045,
      "activ": 3046,
      "ir": 3047,
      "rh": 3048,
      "ve": 3049,
      "wood": 3050,
      "critic": 3051,
      "##iety": 3052,
      "children": 3053,
      "cas": 3054,
      "##xim": 3055,
      "civ": 3056,
      "across": 3057,
      "ham": 3058,
      "geor": 3059,
      "young": 3060,
      "mal": 3061,
      "roman": 3062,
      "age": 3063,
      "##ara": 3064,
      "television": 3065,
      "les": 3066,
      "mass": 3067,
      "making": 3068,
      "too": 3069,
      "##ches": 3070,
      "heavy": 3071,
      "writing": 3072,
      "human": 3073,
      "grand": 3074,
      "##day": 3075,
      "##arn": 3076,
      "##sp": 3077,
      "read": 3078,
      "squad": 3079,
      "##ened": 3080,
      "trav": 3081,
      "##ress": 3082,
      "27": 3083,
      "returned": 3084,
      "include": 3085,
      "eastern": 3086,
      "tor": 3087,
      "##con": 3088,
      "##echn": 3089,
      "fact": 3090,
      "prim": 3091,
      "president": 3092,
      "miles": 3093,
      "##ama": 3094,
      "performance": 3095,
      "away": 3096,
      "thought": 3097,
      "hill": 3098,
      "conn": 3099,
      "using": 3100,
      "2013": 3101,
      "construction": 3102,
      "hol": 3103,
      "##antry": 3104,
      "50": 3105,
      "##ator": 3106,
      "##ests": 3107,
      "civil": 3108,
      "dou": 3109,
      "stated": 3110,
      "##used": 3111,
      "##ization": 3112,
      "developed": 3113,
      "building": 3114,
      "seven": 3115,
      "broad": 3116,
      "population": 3117,
      "tur": 3118,
      "##ef": 3119,
      "##ades": 3120,
      "should": 3121,
      "elect": 3122,
      "techn": 3123,
      "suff": 3124,
      "william": 3125,
      "reached": 3126,
      "seen": 3127,
      "destroy": 3128,
      "significant": 3129,
      "arg": 3130,
      "fight": 3131,
      "wr": 3132,
      "sun": 3133,
      "center": 3134,
      "ill": 3135,
      "##ero": 3136,
      "america": 3137,
      "japanese": 3138,
      "base": 3139,
      "##ford": 3140,
      "look": 3141,
      "burn": 3142,
      "mm": 3143,
      "##fic": 3144,
      "##ither": 3145,
      "##play": 3146,
      "special": 3147,
      "pain": 3148,
      "announ": 3149,
      "fem": 3150,
      "hom": 3151,
      "##ius": 3152,
      "occur": 3153,
      "##rew": 3154,
      "dev": 3155,
      "instead": 3156,
      "##omb": 3157,
      "body": 3158,
      "official": 3159,
      "29": 3160,
      "full": 3161,
      "##arch": 3162,
      "guns": 3163,
      "infantry": 3164,
      "iron": 3165,
      "san": 3166,
      "##lished": 3167,
      "##oph": 3168,
      "works": 3169,
      "190": 3170,
      "##omen": 3171,
      "mean": 3172,
      "##ship": 3173,
      "##iness": 3174,
      "##ological": 3175,
      "established": 3176,
      "fif": 3177,
      "lond": 3178,
      "##ground": 3179,
      "range": 3180,
      "##aign": 3181,
      "##self": 3182,
      "cir": 3183,
      "hy": 3184,
      "##craft": 3185,
      "##ape": 3186,
      "##aves": 3187,
      "##pression": 3188,
      "himself": 3189,
      "campaign": 3190,
      "cath": 3191,
      "ver": 3192,
      "went": 3193,
      "##reek": 3194,
      "formed": 3195,
      "located": 3196,
      "street": 3197,
      "dav": 3198,
      "ol": 3199,
      "pra": 3200,
      "areas": 3201,
      "london": 3202,
      "fall": 3203,
      "put": 3204,
      "vol": 3205,
      "various": 3206,
      "##ges": 3207,
      "##co": 3208,
      "##cess": 3209,
      "introdu": 3210,
      "##iers": 3211,
      "##lex": 3212,
      "need": 3213,
      "indust": 3214,
      "guitar": 3215,
      "brigade": 3216,
      "##ee": 3217,
      "players": 3218,
      "##vers": 3219,
      "football": 3220,
      "important": 3221,
      "fun": 3222,
      "felt": 3223,
      "mix": 3224,
      "decl": 3225,
      "engine": 3226,
      "originally": 3227,
      "##iec": 3228,
      "##work": 3229,
      "stri": 3230,
      "##isted": 3231,
      "killed": 3232,
      "sel": 3233,
      "successful": 3234,
      "##ination": 3235,
      "##alth": 3236,
      "noted": 3237,
      "poem": 3238,
      "died": 3239,
      "begin": 3240,
      "fig": 3241,
      "get": 3242,
      "mi": 3243,
      "##ket": 3244,
      "feet": 3245,
      "wall": 3246,
      "##most": 3247,
      "##osaur": 3248,
      "style": 3249,
      "##ylan": 3250,
      "##ements": 3251,
      "dylan": 3252,
      "##erc": 3253,
      "hero": 3254,
      "colon": 3255,
      "mot": 3256,
      "##acy": 3257,
      "##unch": 3258,
      "relig": 3259,
      "father": 3260,
      "##ox": 3261,
      "##oon": 3262,
      "##ald": 3263,
      "##itive": 3264,
      "vo": 3265,
      "kingdom": 3266,
      "##ective": 3267,
      "sett": 3268,
      "depart": 3269,
      "started": 3270,
      "born": 3271,
      "fac": 3272,
      "##itted": 3273,
      "performed": 3274,
      "troops": 3275,
      "sn": 3276,
      "##ki": 3277,
      "##field": 3278,
      "mem": 3279,
      "##ief": 3280,
      "31": 3281,
      "pen": 3282,
      "pitch": 3283,
      "tal": 3284,
      "##ico": 3285,
      "##ript": 3286,
      "upon": 3287,
      "##ille": 3288,
      "du": 3289,
      "nat": 3290,
      "net": 3291,
      "##me": 3292,
      "discover": 3293,
      "cert": 3294,
      "##get": 3295,
      "##ration": 3296,
      "##ino": 3297,
      "remained": 3298,
      "##iction": 3299,
      "ire": 3300,
      "let": 3301,
      "##ested": 3302,
      "##af": 3303,
      "others": 3304,
      "##fall": 3305,
      "vir": 3306,
      "##ck": 3307,
      "##ering": 3308,
      "political": 3309,
      "promot": 3310,
      "caused": 3311,
      "ireland": 3312,
      "##ogn": 3313,
      "ap": 3314,
      "james": 3315,
      "##mp": 3316,
      "events": 3317,
      "##ids": 3318,
      "does": 3319,
      "fav": 3320,
      "##epend": 3321,
      "##idence": 3322,
      "peak": 3323,
      "bri": 3324,
      "lang": 3325,
      "independ": 3326,
      "colle": 3327,
      "hold": 3328,
      "enc": 3329,
      "reb": 3330,
      "2005": 3331,
      "entire": 3332,
      "##lo": 3333,
      "##iting": 3334,
      "agre": 3335,
      "critics": 3336,
      "##ael": 3337,
      "##orts": 3338,
      "hon": 3339,
      "tom": 3340,
      "ly": 3341,
      "##ney": 3342,
      "bi": 3343,
      "round": 3344,
      "word": 3345,
      "commission": 3346,
      "earth": 3347,
      "circ": 3348,
      "aud": 3349,
      "##iated": 3350,
      "cond": 3351,
      "able": 3352,
      "know": 3353,
      "##gether": 3354,
      "director": 3355,
      "hot": 3356,
      "nar": 3357,
      "##esh": 3358,
      "##ries": 3359,
      "aircraft": 3360,
      "served": 3361,
      "eventually": 3362,
      "##ream": 3363,
      "damage": 3364,
      "##be": 3365,
      "##ament": 3366,
      "relations": 3367,
      "operations": 3368,
      "estim": 3369,
      "created": 3370,
      "characters": 3371,
      "##enced": 3372,
      "tradition": 3373,
      "##asing": 3374,
      "##enth": 3375,
      "behind": 3376,
      "sea": 3377,
      "brown": 3378,
      "magaz": 3379,
      "meet": 3380,
      "followed": 3381,
      "bow": 3382,
      "mad": 3383,
      "rul": 3384,
      "pred": 3385,
      "189": 3386,
      "40": 3387,
      "##ana": 3388,
      "##antic": 3389,
      "becom": 3390,
      "completed": 3391,
      "loss": 3392,
      "action": 3393,
      "women": 3394,
      "##mar": 3395,
      "anim": 3396,
      "least": 3397,
      "cer": 3398,
      "inn": 3399,
      "comment": 3400,
      "subsequ": 3401,
      "diffic": 3402,
      "difficult": 3403,
      "der": 3404,
      "li": 3405,
      "cycl": 3406,
      "announced": 3407,
      "od": 3408,
      "ul": 3409,
      "2004": 3410,
      "bird": 3411,
      "gal": 3412,
      "rail": 3413,
      "almost": 3414,
      "##emy": 3415,
      "produc": 3416,
      "cop": 3417,
      "##ma": 3418,
      "fourth": 3419,
      "added": 3420,
      "ident": 3421,
      "cup": 3422,
      "den": 3423,
      "##anch": 3424,
      "transport": 3425,
      "ide": 3426,
      "##ample": 3427,
      "months": 3428,
      "nav": 3429,
      "ru": 3430,
      "##ivid": 3431,
      "fleet": 3432,
      "saw": 3433,
      "appeared": 3434,
      "los": 3435,
      "##go": 3436,
      "ast": 3437,
      "hit": 3438,
      "key": 3439,
      "non": 3440,
      "operation": 3441,
      "case": 3442,
      "together": 3443,
      "party": 3444,
      "ey": 3445,
      "##ique": 3446,
      "##ked": 3447,
      "##iff": 3448,
      "##ucle": 3449,
      "curr": 3450,
      "grow": 3451,
      "sat": 3452,
      "towards": 3453,
      "novel": 3454,
      "ber": 3455,
      "mcc": 3456,
      "pet": 3457,
      "sour": 3458,
      "voc": 3459,
      "bay": 3460,
      "hall": 3461,
      "lack": 3462,
      "sil": 3463,
      "##ways": 3464,
      "##odes": 3465,
      "features": 3466,
      "##rict": 3467,
      "mur": 3468,
      "big": 3469,
      "##east": 3470,
      "2015": 3471,
      "aver": 3472,
      "process": 3473,
      "exc": 3474,
      "lik": 3475,
      "##cil": 3476,
      "##ky": 3477,
      "##aly": 3478,
      "individ": 3479,
      "hard": 3480,
      "rain": 3481,
      "##ray": 3482,
      "station": 3483,
      "2003": 3484,
      "resear": 3485,
      "accom": 3486,
      "##ency": 3487,
      "jew": 3488,
      "mother": 3489,
      "sex": 3490,
      "decided": 3491,
      "##ract": 3492,
      "close": 3493,
      "stars": 3494,
      "research": 3495,
      "bir": 3496,
      "##tim": 3497,
      "##cted": 3498,
      "mach": 3499,
      "##ming": 3500,
      "stage": 3501,
      "atl": 3502,
      "##elling": 3503,
      "rank": 3504,
      "recogn": 3505,
      "winds": 3506,
      "mc": 3507,
      "ny": 3508,
      "taken": 3509,
      "##ped": 3510,
      "fa": 3511,
      "navy": 3512,
      "trib": 3513,
      "##ster": 3514,
      "##ells": 3515,
      "flight": 3516,
      "regiment": 3517,
      "##less": 3518,
      "188": 3519,
      "playing": 3520,
      "office": 3521,
      "##dle": 3522,
      "inform": 3523,
      "mex": 3524,
      "scientology": 3525,
      "chap": 3526,
      "cut": 3527,
      "interv": 3528,
      "approach": 3529,
      "either": 3530,
      "wife": 3531,
      "jour": 3532,
      "##asion": 3533,
      "appoint": 3534,
      "clos": 3535,
      "business": 3536,
      "##igned": 3537,
      "impro": 3538,
      "awards": 3539,
      "##to": 3540,
      "##su": 3541,
      "##cent": 3542,
      "separ": 3543,
      "host": 3544,
      "##den": 3545,
      "##ned": 3546,
      "proble": 3547,
      "goal": 3548,
      "robert": 3549,
      "cru": 3550,
      "##ecut": 3551,
      "depression": 3552,
      "##aper": 3553,
      "muse": 3554,
      "##ators": 3555,
      "##istic": 3556,
      "flor": 3557,
      "quar": 3558,
      "territ": 3559,
      "leading": 3560,
      "david": 3561,
      "invest": 3562,
      "crew": 3563,
      "insp": 3564,
      "sen": 3565,
      "france": 3566,
      "esc": 3567,
      "treat": 3568,
      "##gn": 3569,
      "scored": 3570,
      "##ata": 3571,
      "##olution": 3572,
      "flood": 3573,
      "ach": 3574,
      "race": 3575,
      "prote": 3576,
      "##ota": 3577,
      "units": 3578,
      "adm": 3579,
      "185": 3580,
      "wales": 3581,
      "member": 3582,
      "nucle": 3583,
      "rather": 3584,
      "langu": 3585,
      "stru": 3586,
      "##utes": 3587,
      "soon": 3588,
      "35": 3589,
      "mac": 3590,
      "mater": 3591,
      "shot": 3592,
      "outside": 3593,
      "emb": 3594,
      "cost": 3595,
      "##ential": 3596,
      "##aps": 3597,
      "past": 3598,
      "wid": 3599,
      "##king": 3600,
      "##ica": 3601,
      "indian": 3602,
      "accept": 3603,
      "featured": 3604,
      "magazine": 3605,
      "creek": 3606,
      "domin": 3607,
      "##oo": 3608,
      "stop": 3609,
      "##ending": 3610,
      "move": 3611,
      "er": 3612,
      "##west": 3613,
      "##ography": 3614,
      "##etic": 3615,
      "##ceed": 3616,
      "example": 3617,
      "records": 3618,
      "##medi": 3619,
      "ath": 3620,
      "creat": 3621,
      "fund": 3622,
      "que": 3623,
      "react": 3624,
      "directed": 3625,
      "respons": 3626,
      "launch": 3627,
      "500": 3628,
      "##ani": 3629,
      "stone": 3630,
      "council": 3631,
      "relationship": 3632,
      "foc": 3633,
      "kil": 3634,
      "meas": 3635,
      "##ully": 3636,
      "union": 3637,
      "coach": 3638,
      "believed": 3639,
      "clear": 3640,
      "pot": 3641,
      "tow": 3642,
      "intens": 3643,
      "commerc": 3644,
      "brought": 3645,
      "ur": 3646,
      "##wood": 3647,
      "come": 3648,
      "squadron": 3649,
      "pac": 3650,
      "anc": 3651,
      "carey": 3652,
      "prem": 3653,
      "weeks": 3654,
      "elements": 3655,
      "card": 3656,
      "edu": 3657,
      "beg": 3658,
      "##uation": 3659,
      "recording": 3660,
      "opening": 3661,
      "hen": 3662,
      "condu": 3663,
      "sequ": 3664,
      "prob": 3665,
      "placed": 3666,
      "186": 3667,
      "finished": 3668,
      "regular": 3669,
      "syn": 3670,
      "contract": 3671,
      "bra": 3672,
      "face": 3673,
      "ox": 3674,
      "rap": 3675,
      "##tain": 3676,
      "largest": 3677,
      "concert": 3678,
      "points": 3679,
      "initially": 3680,
      "earlier": 3681,
      "mph": 3682,
      "##ington": 3683,
      "##ude": 3684,
      "above": 3685,
      "regard": 3686,
      "employ": 3687,
      "working": 3688,
      "type": 3689,
      "qual": 3690,
      "##aut": 3691,
      "republ": 3692,
      "##ville": 3693,
      "##for": 3694,
      "express": 3695,
      "generally": 3696,
      "provided": 3697,
      "victory": 3698,
      "##ih": 3699,
      "inh": 3700,
      "##thod": 3701,
      "##lement": 3702,
      "##board": 3703,
      "paul": 3704,
      "police": 3705,
      "era": 3706,
      "##imes": 3707,
      "heav": 3708,
      "opened": 3709,
      "kh": 3710,
      "mult": 3711,
      "##oring": 3712,
      "appearance": 3713,
      "archae": 3714,
      "hu": 3715,
      "thom": 3716,
      "priv": 3717,
      "secret": 3718,
      "strength": 3719,
      "studio": 3720,
      "designed": 3721,
      "redu": 3722,
      "radio": 3723,
      "museum": 3724,
      "sus": 3725,
      "##icated": 3726,
      "##ida": 3727,
      "##ishing": 3728,
      "fell": 3729,
      "hours": 3730,
      "##reg": 3731,
      "compos": 3732,
      "prior": 3733,
      "fly": 3734,
      "cho": 3735,
      "acad": 3736,
      "possible": 3737,
      "previously": 3738,
      "wanted": 3739,
      "deter": 3740,
      "allowed": 3741,
      "village": 3742,
      "involved": 3743,
      "lower": 3744,
      "test": 3745,
      "##anks": 3746,
      "##iding": 3747,
      "quick": 3748,
      "association": 3749,
      "draw": 3750,
      "nine": 3751,
      "rose": 3752,
      "yards": 3753,
      "##umb": 3754,
      "neg": 3755,
      "plat": 3756,
      "diss": 3757,
      "parl": 3758,
      "educ": 3759,
      "jud": 3760,
      "viet": 3761,
      "##erous": 3762,
      "community": 3763,
      "viol": 3764,
      "george": 3765,
      "nec": 3766,
      "european": 3767,
      "saying": 3768,
      "achie": 3769,
      "section": 3770,
      "condom": 3771,
      "pract": 3772,
      "##ze": 3773,
      "anti": 3774,
      "angel": 3775,
      "bal": 3776,
      "exist": 3777,
      "middle": 3778,
      "break": 3779,
      "replaced": 3780,
      "gir": 3781,
      "lat": 3782,
      "##nes": 3783,
      "sym": 3784,
      "esp": 3785,
      "manager": 3786,
      "particularly": 3787,
      "econ": 3788,
      "##yr": 3789,
      "theat": 3790,
      "econom": 3791,
      "##gg": 3792,
      "##uel": 3793,
      "##rated": 3794,
      "##omet": 3795,
      "span": 3796,
      "minor": 3797,
      "republic": 3798,
      "length": 3799,
      "training": 3800,
      "blue": 3801,
      "inj": 3802,
      "scre": 3803,
      "saf": 3804,
      "gar": 3805,
      "summer": 3806,
      "college": 3807,
      "estimated": 3808,
      "hous": 3809,
      "nomin": 3810,
      "##men": 3811,
      "##ties": 3812,
      "##ving": 3813,
      "##elled": 3814,
      "amb": 3815,
      "joined": 3816,
      "construct": 3817,
      "parliam": 3818,
      "mart": 3819,
      "zeal": 3820,
      "threat": 3821,
      "reason": 3822,
      "seem": 3823,
      "commit": 3824,
      "187": 3825,
      "2014": 3826,
      "remov": 3827,
      "study": 3828,
      "commander": 3829,
      "##nar": 3830,
      "deal": 3831,
      "carol": 3832,
      "room": 3833,
      "metres": 3834,
      "christian": 3835,
      "hosp": 3836,
      "sem": 3837,
      "##sel": 3838,
      "forced": 3839,
      "female": 3840,
      "kore": 3841,
      "##head": 3842,
      "2001": 3843,
      "##inese": 3844,
      "norm": 3845,
      "pan": 3846,
      "##ores": 3847,
      "##ask": 3848,
      "transfer": 3849,
      "commercial": 3850,
      "di": 3851,
      "ven": 3852,
      "##onst": 3853,
      "stay": 3854,
      "chinese": 3855,
      "prepar": 3856,
      "##anned": 3857,
      "dom": 3858,
      "##ula": 3859,
      "19th": 3860,
      "dead": 3861,
      "##quar": 3862,
      "scene": 3863,
      "praised": 3864,
      "sam": 3865,
      "##uter": 3866,
      "##round": 3867,
      "##ita": 3868,
      "##ago": 3869,
      "bridge": 3870,
      "teach": 3871,
      "increased": 3872,
      "material": 3873,
      "athlet": 3874,
      "parliament": 3875,
      "lines": 3876,
      "liter": 3877,
      "##cast": 3878,
      "##itz": 3879,
      "withd": 3880,
      "worked": 3881,
      "avail": 3882,
      "wil": 3883,
      "##down": 3884,
      "##aint": 3885,
      "critical": 3886,
      "personal": 3887,
      "staff": 3888,
      "bey": 3889,
      "effect": 3890,
      "observ": 3891,
      "##off": 3892,
      "##bor": 3893,
      "scen": 3894,
      "evidence": 3895,
      "poet": 3896,
      "account": 3897,
      "beginning": 3898,
      "zealand": 3899,
      "mos": 3900,
      "##nel": 3901,
      "##aded": 3902,
      "poor": 3903,
      "background": 3904,
      "instit": 3905,
      "ordered": 3906,
      "social": 3907,
      "somet": 3908,
      "wat": 3909,
      "britain": 3910,
      "michael": 3911,
      "fut": 3912,
      "taking": 3913,
      "##ania": 3914,
      "##ste": 3915,
      "##ros": 3916,
      "feel": 3917,
      "immedi": 3918,
      "wheel": 3919,
      "structure": 3920,
      "##imin": 3921,
      "capital": 3922,
      "society": 3923,
      "mexico": 3924,
      "quarter": 3925,
      "russ": 3926,
      "watch": 3927,
      "##erson": 3928,
      "remains": 3929,
      "surf": 3930,
      "occup": 3931,
      "profession": 3932,
      "assist": 3933,
      "subst": 3934,
      "lesnar": 3935,
      "atlantic": 3936,
      "yard": 3937,
      "##ections": 3938,
      "girl": 3939,
      "45": 3940,
      "doc": 3941,
      "##val": 3942,
      "##orial": 3943,
      "princ": 3944,
      "##ibility": 3945,
      "approxim": 3946,
      "pacific": 3947,
      "aut": 3948,
      "##ault": 3949,
      "highest": 3950,
      "mountain": 3951,
      "mary": 3952,
      "##uz": 3953,
      "whom": 3954,
      "particip": 3955,
      "interview": 3956,
      "food": 3957,
      "lad": 3958,
      "must": 3959,
      "os": 3960,
      "change": 3961,
      "average": 3962,
      "00": 3963,
      "mel": 3964,
      "touch": 3965,
      "contrib": 3966,
      "##oney": 3967,
      "reception": 3968,
      "media": 3969,
      "establish": 3970,
      "##ready": 3971,
      "dark": 3972,
      "pay": 3973,
      "##ett": 3974,
      "plot": 3975,
      "##aker": 3976,
      "object": 3977,
      "federer": 3978,
      "native": 3979,
      "##arily": 3980,
      "unc": 3981,
      "florida": 3982,
      "##usion": 3983,
      "##ulf": 3984,
      "surround": 3985,
      "##ification": 3986,
      "increasing": 3987,
      "piec": 3988,
      "##eth": 3989,
      "##ouri": 3990,
      "2002": 3991,
      "assemb": 3992,
      "temple": 3993,
      "turned": 3994,
      "horse": 3995,
      "cat": 3996,
      "##ows": 3997,
      "interest": 3998,
      "phys": 3999,
      "claimed": 4000,
      "richard": 4001,
      "travel": 4002,
      "religious": 4003,
      "dro": 4004,
      "names": 4005,
      "deep": 4006,
      "##ordan": 4007,
      "admin": 4008,
      "itself": 4009,
      "##oke": 4010,
      "signed": 4011,
      "##uck": 4012,
      "arrived": 4013,
      "##porary": 4014,
      "##urg": 4015,
      "heart": 4016,
      "except": 4017,
      "disp": 4018,
      "emp": 4019,
      "complete": 4020,
      "reviews": 4021,
      "60": 4022,
      "happ": 4023,
      "##gu": 4024,
      "##uk": 4025,
      "##pper": 4026,
      "news": 4027,
      "parts": 4028,
      "overall": 4029,
      "damaged": 4030,
      "mat": 4031,
      "ren": 4032,
      "tech": 4033,
      "##tar": 4034,
      "##band": 4035,
      "proper": 4036,
      "exh": 4037,
      "better": 4038,
      "department": 4039,
      "##ecutive": 4040,
      "available": 4041,
      "##gar": 4042,
      "##erved": 4043,
      "already": 4044,
      "discuss": 4045,
      "industry": 4046,
      "thomas": 4047,
      "jordan": 4048,
      "uk": 4049,
      "wild": 4050,
      "##ector": 4051,
      "##abit": 4052,
      "defeated": 4053,
      "je": 4054,
      "today": 4055,
      "imm": 4056,
      "going": 4057,
      "rob": 4058,
      "##ails": 4059,
      "probably": 4060,
      "bad": 4061,
      "wide": 4062,
      "##ites": 4063,
      "term": 4064,
      "slow": 4065,
      "date": 4066,
      "additional": 4067,
      "soldiers": 4068,
      "oliv": 4069,
      "36": 4070,
      "hun": 4071,
      "rang": 4072,
      "tar": 4073,
      "##rd": 4074,
      "##xas": 4075,
      "told": 4076,
      "##stand": 4077,
      "##ulated": 4078,
      "##ription": 4079,
      "##ocks": 4080,
      "imag": 4081,
      "passed": 4082,
      "green": 4083,
      "##gypt": 4084,
      "##pan": 4085,
      "##vert": 4086,
      "2000": 4087,
      "contem": 4088,
      "canad": 4089,
      "canada": 4090,
      "debut": 4091,
      "approximately": 4092,
      "dig": 4093,
      "dut": 4094,
      "egypt": 4095,
      "##aries": 4096,
      "##acing": 4097,
      "forward": 4098,
      "appointed": 4099,
      "latter": 4100,
      "##ila": 4101,
      "whose": 4102,
      "board": 4103,
      "grad": 4104,
      "language": 4105,
      "sometimes": 4106,
      "75": 4107,
      "think": 4108,
      "##une": 4109,
      "##ateg": 4110,
      "space": 4111,
      "respect": 4112,
      "2nd": 4113,
      "38": 4114,
      "give": 4115,
      "##my": 4116,
      "##of": 4117,
      "##ams": 4118,
      "abs": 4119,
      "required": 4120,
      "bod": 4121,
      "lou": 4122,
      "upper": 4123,
      "##nal": 4124,
      "enough": 4125,
      "nearly": 4126,
      "vietn": 4127,
      "fiction": 4128,
      "mort": 4129,
      "our": 4130,
      "boy": 4131,
      "183": 4132,
      "headquar": 4133,
      "running": 4134,
      "fighting": 4135,
      "##stein": 4136,
      "ot": 4137,
      "##omm": 4138,
      "scott": 4139,
      "winning": 4140,
      "henry": 4141,
      "size": 4142,
      "##ining": 4143,
      "##isc": 4144,
      "unl": 4145,
      "airport": 4146,
      "groups": 4147,
      "prevent": 4148,
      "certain": 4149,
      "subsequently": 4150,
      "##back": 4151,
      "##eston": 4152,
      "unit": 4153,
      "##ference": 4154,
      "writer": 4155,
      "missouri": 4156,
      "lake": 4157,
      "roll": 4158,
      "##urity": 4159,
      "mont": 4160,
      "lay": 4161,
      "##gen": 4162,
      "##ases": 4163,
      "forest": 4164,
      "##ability": 4165,
      "decision": 4166,
      "remaining": 4167,
      "cred": 4168,
      "suggested": 4169,
      "limited": 4170,
      "bul": 4171,
      "thus": 4172,
      "##ump": 4173,
      "victor": 4174,
      "male": 4175,
      "##atory": 4176,
      "complex": 4177,
      "goals": 4178,
      "confl": 4179,
      "introduced": 4180,
      "bord": 4181,
      "might": 4182,
      "##oration": 4183,
      "##ening": 4184,
      "display": 4185,
      "ended": 4186,
      "shows": 4187,
      "dyn": 4188,
      "daugh": 4189,
      "failed": 4190,
      "jose": 4191,
      "##wor": 4192,
      "##ume": 4193,
      "district": 4194,
      "issue": 4195,
      "espec": 4196,
      "nero": 4197,
      "woman": 4198,
      "##ilities": 4199,
      "exam": 4200,
      "moving": 4201,
      "captain": 4202,
      "fifth": 4203,
      "fer": 4204,
      "##apt": 4205,
      "africa": 4206,
      "##olic": 4207,
      "depict": 4208,
      "especially": 4209,
      "bomb": 4210,
      "##oor": 4211,
      "##ari": 4212,
      "anth": 4213,
      "centre": 4214,
      "charles": 4215,
      "supported": 4216,
      "captured": 4217,
      "visit": 4218,
      "naval": 4219,
      "##lor": 4220,
      "##onse": 4221,
      "##uments": 4222,
      "intell": 4223,
      "remain": 4224,
      "emper": 4225,
      "larger": 4226,
      "terr": 4227,
      "friends": 4228,
      "investig": 4229,
      "bab": 4230,
      "##gl": 4231,
      "##uit": 4232,
      "##kn": 4233,
      "##illery": 4234,
      "india": 4235,
      "morn": 4236,
      "peter": 4237,
      "##ga": 4238,
      "##ecting": 4239,
      "spent": 4240,
      "##ronic": 4241,
      "artillery": 4242,
      "germany": 4243,
      "changes": 4244,
      "natural": 4245,
      "discovered": 4246,
      "spanish": 4247,
      "1st": 4248,
      "##bc": 4249,
      "##bers": 4250,
      "##idents": 4251,
      "twent": 4252,
      "intended": 4253,
      "appl": 4254,
      "response": 4255,
      "irish": 4256,
      "destroyed": 4257,
      "mixed": 4258,
      "future": 4259,
      "self": 4260,
      "##iest": 4261,
      "##ises": 4262,
      "blood": 4263,
      "network": 4264,
      "corn": 4265,
      "mr": 4266,
      "pair": 4267,
      "##eless": 4268,
      "runs": 4269,
      "counter": 4270,
      "lyric": 4271,
      "##ays": 4272,
      "##ersh": 4273,
      "traff": 4274,
      "script": 4275,
      "finally": 4276,
      "federal": 4277,
      "ultim": 4278,
      "oce": 4279,
      "##ads": 4280,
      "health": 4281,
      "notes": 4282,
      "subject": 4283,
      "reveal": 4284,
      "quest": 4285,
      "aw": 4286,
      "hop": 4287,
      "##ker": 4288,
      "grant": 4289,
      "184": 4290,
      "includes": 4291,
      "guard": 4292,
      "teams": 4293,
      "feature": 4294,
      "frequ": 4295,
      "professional": 4296,
      "fox": 4297,
      "##ken": 4298,
      "##inct": 4299,
      "##aring": 4300,
      "##oles": 4301,
      "stories": 4302,
      "fore": 4303,
      "beat": 4304,
      "usually": 4305,
      "cou": 4306,
      "pun": 4307,
      "penn": 4308,
      "ran": 4309,
      "und": 4310,
      "##ca": 4311,
      "emer": 4312,
      "positive": 4313,
      "provide": 4314,
      "shortly": 4315,
      "square": 4316,
      "broadcast": 4317,
      "canadian": 4318,
      "##oid": 4319,
      "frank": 4320,
      "arab": 4321,
      "indic": 4322,
      "films": 4323,
      "minutes": 4324,
      "favor": 4325,
      "agreed": 4326,
      "cam": 4327,
      "link": 4328,
      "##yer": 4329,
      "comed": 4330,
      "mostly": 4331,
      "morning": 4332,
      "mention": 4333,
      "##ishop": 4334,
      "compl": 4335,
      "##ples": 4336,
      "oldham": 4337,
      "smaller": 4338,
      "archit": 4339,
      "mounted": 4340,
      "got": 4341,
      "tax": 4342,
      "##ios": 4343,
      "always": 4344,
      "chic": 4345,
      "musical": 4346,
      "pressure": 4347,
      "becoming": 4348,
      "students": 4349,
      "corps": 4350,
      "education": 4351,
      "jin": 4352,
      "lord": 4353,
      "living": 4354,
      "oly": 4355,
      "##edral": 4356,
      "##ston": 4357,
      "positions": 4358,
      "location": 4359,
      "headquarters": 4360,
      "olymp": 4361,
      "ben": 4362,
      "batter": 4363,
      "mom": 4364,
      "##pped": 4365,
      "score": 4366,
      "movement": 4367,
      "schol": 4368,
      "##anna": 4369,
      "voice": 4370,
      "##fect": 4371,
      "shown": 4372,
      "adop": 4373,
      "speed": 4374,
      "birth": 4375,
      "private": 4376,
      "jer": 4377,
      "##rack": 4378,
      "##fact": 4379,
      "##iser": 4380,
      "##change": 4381,
      "##andon": 4382,
      "amount": 4383,
      "product": 4384,
      "iii": 4385,
      "oppos": 4386,
      "culture": 4387,
      "primary": 4388,
      "ca": 4389,
      "doll": 4390,
      "log": 4391,
      "ty": 4392,
      "cann": 4393,
      "text": 4394,
      "##ging": 4395,
      "##igan": 4396,
      "##umn": 4397,
      "carried": 4398,
      "##teen": 4399,
      "color": 4400,
      "1999": 4401,
      "larg": 4402,
      "doct": 4403,
      "##osaurus": 4404,
      "cm": 4405,
      "cad": 4406,
      "ple": 4407,
      "tv": 4408,
      "yet": 4409,
      "##atively": 4410,
      "##outh": 4411,
      "china": 4412,
      "companies": 4413,
      "effects": 4414,
      "temper": 4415,
      "defeat": 4416,
      "problems": 4417,
      "rapid": 4418,
      "administ": 4419,
      "money": 4420,
      "vot": 4421,
      "wound": 4422,
      "conclud": 4423,
      "concept": 4424,
      "trade": 4425,
      "related": 4426,
      "concern": 4427,
      "likely": 4428,
      "surface": 4429,
      "olivier": 4430,
      "cele": 4431,
      "fish": 4432,
      "gall": 4433,
      "##mond": 4434,
      "##car": 4435,
      "chief": 4436,
      "shoot": 4437,
      "##agon": 4438,
      "percent": 4439,
      "keep": 4440,
      "casual": 4441,
      "empire": 4442,
      "nations": 4443,
      "nature": 4444,
      "sev": 4445,
      "image": 4446,
      "consist": 4447,
      "1995": 4448,
      "billboard": 4449,
      "referred": 4450,
      "cathedral": 4451,
      "ranked": 4452,
      "rif": 4453,
      "ital": 4454,
      "box": 4455,
      "below": 4456,
      "impact": 4457,
      "books": 4458,
      "jewish": 4459,
      "quickly": 4460,
      "hospital": 4461,
      "32": 4462,
      "kr": 4463,
      "ridge": 4464,
      "tons": 4465,
      "##uals": 4466,
      "rein": 4467,
      "franc": 4468,
      "leaving": 4469,
      "officers": 4470,
      "entered": 4471,
      "virgin": 4472,
      "brief": 4473,
      "traffic": 4474,
      "80": 4475,
      "method": 4476,
      "machine": 4477,
      "territory": 4478,
      "##selves": 4479,
      "emperor": 4480,
      "ll": 4481,
      "makes": 4482,
      "pil": 4483,
      "sand": 4484,
      "##ii": 4485,
      "##under": 4486,
      "##ria": 4487,
      "election": 4488,
      "numbers": 4489,
      "calif": 4490,
      "experience": 4491,
      "400": 4492,
      "bon": 4493,
      "haw": 4494,
      "##mas": 4495,
      "##ners": 4496,
      "##etr": 4497,
      "##achel": 4498,
      "##rael": 4499,
      "majority": 4500,
      "arrang": 4501,
      "cyclone": 4502,
      "lyrics": 4503,
      "lif": 4504,
      "pow": 4505,
      "van": 4506,
      "plans": 4507,
      "constit": 4508,
      "associated": 4509,
      "constructed": 4510,
      "conflict": 4511,
      "ocean": 4512,
      "ce": 4513,
      "cell": 4514,
      "##ban": 4515,
      "thick": 4516,
      "##ication": 4517,
      "env": 4518,
      "##ipal": 4519,
      "manila": 4520,
      "constant": 4521,
      "californ": 4522,
      "33": 4523,
      "##well": 4524,
      "##isions": 4525,
      "learn": 4526,
      "distrib": 4527,
      "inside": 4528,
      "status": 4529,
      "idea": 4530,
      "launched": 4531,
      "largely": 4532,
      "cause": 4533,
      "mas": 4534,
      "##ander": 4535,
      "##riage": 4536,
      "bring": 4537,
      "inters": 4538,
      "assigned": 4539,
      "minute": 4540,
      "attacks": 4541,
      "starting": 4542,
      "influence": 4543,
      "suffered": 4544,
      "tower": 4545,
      "bond": 4546,
      "fans": 4547,
      "hus": 4548,
      "hair": 4549,
      "zh": 4550,
      "chall": 4551,
      "##essed": 4552,
      "block": 4553,
      "attacked": 4554,
      "scenes": 4555,
      "70": 4556,
      "ho": 4557,
      "here": 4558,
      "saint": 4559,
      "ut": 4560,
      "themselves": 4561,
      "battles": 4562,
      "services": 4563,
      "valley": 4564,
      "ancient": 4565,
      "##anced": 4566,
      "asked": 4567,
      "israel": 4568,
      "attract": 4569,
      "governor": 4570,
      "consider": 4571,
      "greatest": 4572,
      "latin": 4573,
      "conference": 4574,
      "##gress": 4575,
      "studies": 4576,
      "slight": 4577,
      "controll": 4578,
      "collection": 4579,
      "market": 4580,
      "ded": 4581,
      "jim": 4582,
      "lock": 4583,
      "master": 4584,
      "purch": 4585,
      "##light": 4586,
      "##ba": 4587,
      "##ional": 4588,
      "##ols": 4589,
      "contains": 4590,
      "brad": 4591,
      "create": 4592,
      "occurred": 4593,
      "wheeler": 4594,
      "fest": 4595,
      "fail": 4596,
      "##eas": 4597,
      "##tained": 4598,
      "##pre": 4599,
      "tourn": 4600,
      "whole": 4601,
      "##ocr": 4602,
      "science": 4603,
      "abandon": 4604,
      "1998": 4605,
      "greater": 4606,
      "breed": 4607,
      "current": 4608,
      "screen": 4609,
      "committe": 4610,
      "bank": 4611,
      "##oth": 4612,
      "care": 4613,
      "forms": 4614,
      "defence": 4615,
      "sched": 4616,
      "artist": 4617,
      "longer": 4618,
      "refl": 4619,
      "increase": 4620,
      "combat": 4621,
      "proposed": 4622,
      "contemporary": 4623,
      "300": 4624,
      "ess": 4625,
      "nic": 4626,
      "wing": 4627,
      "rear": 4628,
      "##ulpt": 4629,
      "sculpt": 4630,
      "listed": 4631,
      "double": 4632,
      "determ": 4633,
      "celebr": 4634,
      "ign": 4635,
      "##vens": 4636,
      "serious": 4637,
      "schools": 4638,
      "organization": 4639,
      "african": 4640,
      "birds": 4641,
      "ban": 4642,
      "bol": 4643,
      "coup": 4644,
      "lived": 4645,
      "asp": 4646,
      "beaut": 4647,
      "anal": 4648,
      "sports": 4649,
      "compared": 4650,
      "##lands": 4651,
      "security": 4652,
      "ending": 4653,
      "croat": 4654,
      "appears": 4655,
      "edge": 4656,
      "changed": 4657,
      "hund": 4658,
      "tenn": 4659,
      "2016": 4660,
      "buildings": 4661,
      "whether": 4662,
      "immediately": 4663,
      "california": 4664,
      "hundred": 4665,
      "bound": 4666,
      "rom": 4667,
      "takes": 4668,
      "##lin": 4669,
      "##rison": 4670,
      "ens": 4671,
      "##rick": 4672,
      "northeast": 4673,
      "##itting": 4674,
      "advance": 4675,
      "lie": 4676,
      "sov": 4677,
      "##itor": 4678,
      "stra": 4679,
      "beach": 4680,
      "planned": 4681,
      "leave": 4682,
      "##ously": 4683,
      "polic": 4684,
      "sixth": 4685,
      "competition": 4686,
      "individual": 4687,
      "information": 4688,
      "daughter": 4689,
      "90": 4690,
      "fant": 4691,
      "pian": 4692,
      "path": 4693,
      "ross": 4694,
      "##urs": 4695,
      "##cend": 4696,
      "##alled": 4697,
      "phot": 4698,
      "terms": 4699,
      "officer": 4700,
      "queen": 4701,
      "removed": 4702,
      "camb": 4703,
      "##mon": 4704,
      "things": 4705,
      "newsp": 4706,
      "dism": 4707,
      "acqu": 4708,
      "drum": 4709,
      "stevens": 4710,
      "annual": 4711,
      "traditional": 4712,
      "bud": 4713,
      "jam": 4714,
      "ram": 4715,
      "##bed": 4716,
      "##jected": 4717,
      "##erve": 4718,
      "##ergy": 4719,
      "wash": 4720,
      "##ulu": 4721,
      "meant": 4722,
      "access": 4723,
      "performances": 4724,
      "susp": 4725,
      "unable": 4726,
      "defense": 4727,
      "independent": 4728,
      "rachel": 4729,
      "weap": 4730,
      "theme": 4731,
      "peace": 4732,
      "initial": 4733,
      "michigan": 4734,
      "selected": 4735,
      "bowl": 4736,
      "gi": 4737,
      "pict": 4738,
      "##umed": 4739,
      "magn": 4740,
      "awarded": 4741,
      "meaning": 4742,
      "focus": 4743,
      "rat": 4744,
      "##onna": 4745,
      "che": 4746,
      "##ifa": 4747,
      "spir": 4748,
      "spring": 4749,
      "revolution": 4750,
      "crow": 4751,
      "mission": 4752,
      "dj": 4753,
      "done": 4754,
      "xen": 4755,
      "##zy": 4756,
      "##room": 4757,
      "search": 4758,
      "plant": 4759,
      "imper": 4760,
      "something": 4761,
      "lands": 4762,
      "variety": 4763,
      "course": 4764,
      "tracks": 4765,
      "##aught": 4766,
      "journal": 4767,
      "architect": 4768,
      "dail": 4769,
      "kind": 4770,
      "20th": 4771,
      "##ify": 4772,
      "promin": 4773,
      "clim": 4774,
      "numerous": 4775,
      "brother": 4776,
      "singles": 4777,
      "episodes": 4778,
      "##ipped": 4779,
      "gods": 4780,
      "standard": 4781,
      "issued": 4782,
      "accompan": 4783,
      "dream": 4784,
      "fast": 4785,
      "ga": 4786,
      "pound": 4787,
      "row": 4788,
      "##gian": 4789,
      "##ex": 4790,
      "##ds": 4791,
      "##itation": 4792,
      "islands": 4793,
      "hyd": 4794,
      "conducted": 4795,
      "aer": 4796,
      "via": 4797,
      "##ortun": 4798,
      "assault": 4799,
      "northwest": 4800,
      "covered": 4801,
      "commented": 4802,
      "kilomet": 4803,
      "casualties": 4804,
      "42": 4805,
      "hour": 4806,
      "jane": 4807,
      "##kan": 4808,
      "##rovers": 4809,
      "deg": 4810,
      "true": 4811,
      "scr": 4812,
      "graph": 4813,
      "financ": 4814,
      "presence": 4815,
      "trees": 4816,
      "management": 4817,
      "figure": 4818,
      "murder": 4819,
      "draft": 4820,
      "giving": 4821,
      "om": 4822,
      "ow": 4823,
      "##ales": 4824,
      "reign": 4825,
      "ali": 4826,
      "##ands": 4827,
      "##rie": 4828,
      "recover": 4829,
      "adult": 4830,
      "controvers": 4831,
      "monument": 4832,
      "maxim": 4833,
      "raised": 4834,
      "eye": 4835,
      "cand": 4836,
      "fear": 4837,
      "lin": 4838,
      "rush": 4839,
      "tay": 4840,
      "thir": 4841,
      "##enue": 4842,
      "actor": 4843,
      "metal": 4844,
      "experi": 4845,
      "wrest": 4846,
      "twenty": 4847,
      "committee": 4848,
      "daily": 4849,
      "37": 4850,
      "##bar": 4851,
      "matches": 4852,
      "attempted": 4853,
      "intellig": 4854,
      "dum": 4855,
      "gh": 4856,
      "gard": 4857,
      "##bury": 4858,
      "really": 4859,
      "offered": 4860,
      "##ologist": 4861,
      "minister": 4862,
      "portray": 4863,
      "marked": 4864,
      "responsible": 4865,
      "pick": 4866,
      "##ny": 4867,
      "##com": 4868,
      "##tered": 4869,
      "##istics": 4870,
      "composed": 4871,
      "carry": 4872,
      "weaken": 4873,
      "flow": 4874,
      "earned": 4875,
      "1993": 4876,
      "portug": 4877,
      "directly": 4878,
      "nearby": 4879,
      "begins": 4880,
      "husband": 4881,
      "uses": 4882,
      "married": 4883,
      "texas": 4884,
      "albums": 4885,
      "combined": 4886,
      "philipp": 4887,
      "multip": 4888,
      "theatre": 4889,
      "lady": 4890,
      "39": 4891,
      "horn": 4892,
      "your": 4893,
      "##uing": 4894,
      "##iny": 4895,
      "##itude": 4896,
      "##osph": 4897,
      "##anta": 4898,
      "evac": 4899,
      "defend": 4900,
      "specific": 4901,
      "heads": 4902,
      "occasion": 4903,
      "attempts": 4904,
      "helped": 4905,
      "galv": 4906,
      "47": 4907,
      "bed": 4908,
      "sav": 4909,
      "##fl": 4910,
      "##berg": 4911,
      "##ellow": 4912,
      "1996": 4913,
      "haifa": 4914,
      "##chester": 4915,
      "catholic": 4916,
      "source": 4917,
      "inspired": 4918,
      "chicago": 4919,
      "rough": 4920,
      "##ado": 4921,
      "##aped": 4922,
      "1997": 4923,
      "producer": 4924,
      "taylor": 4925,
      "nation": 4926,
      "pag": 4927,
      "##vement": 4928,
      "##iva": 4929,
      "##anded": 4930,
      "closed": 4931,
      "disapp": 4932,
      "offensive": 4933,
      "active": 4934,
      "crown": 4935,
      "christmas": 4936,
      "rule": 4937,
      "necess": 4938,
      "border": 4939,
      "xenon": 4940,
      "fol": 4941,
      "mun": 4942,
      "nin": 4943,
      "##iate": 4944,
      "##ya": 4945,
      "throw": 4946,
      "##ena": 4947,
      "stad": 4948,
      "chann": 4949,
      "boats": 4950,
      "highly": 4951,
      "writers": 4952,
      "arts": 4953,
      "simp": 4954,
      "continue": 4955,
      "leaders": 4956,
      "##onym": 4957,
      "bass": 4958,
      "kick": 4959,
      "##ding": 4960,
      "chem": 4961,
      "##rial": 4962,
      "entr": 4963,
      "rights": 4964,
      "sac": 4965,
      "wa": 4966,
      "##isl": 4967,
      "##rupt": 4968,
      "branch": 4969,
      "cold": 4970,
      "villa": 4971,
      "situation": 4972,
      "figures": 4973,
      "swe": 4974,
      "##isation": 4975,
      "##eman": 4976,
      "deploy": 4977,
      "##overs": 4978,
      "hands": 4979,
      "historical": 4980,
      "gro": 4981,
      "mile": 4982,
      "ton": 4983,
      "places": 4984,
      "compr": 4985,
      "scot": 4986,
      "##ondyl": 4987,
      "##ibly": 4988,
      "prec": 4989,
      "interact": 4990,
      "higher": 4991,
      "conserv": 4992,
      "resulted": 4993,
      "rhy": 4994,
      "italian": 4995,
      "galveston": 4996,
      "pul": 4997,
      "sides": 4998,
      "##her": 4999,
      "thunder": 5000,
      "##anes": 5001,
      "##ental": 5002,
      "##ims": 5003,
      "1991": 5004,
      "movie": 5005,
      "termin": 5006,
      "150": 5007,
      "needed": 5008,
      "vocals": 5009,
      "houses": 5010,
      "document": 5011,
      "lib": 5012,
      "liver": 5013,
      "sir": 5014,
      "##ils": 5015,
      "##olf": 5016,
      "alle": 5017,
      "sha": 5018,
      "extre": 5019,
      "extended": 5020,
      "advant": 5021,
      "powerful": 5022,
      "allowing": 5023,
      "purp": 5024,
      "veh": 5025,
      "memorial": 5026,
      "touchdown": 5027,
      "assembly": 5028,
      "envir": 5029,
      "##joy": 5030,
      "##uries": 5031,
      "altern": 5032,
      "edition": 5033,
      "sky": 5034,
      "legisl": 5035,
      "##ospondyl": 5036,
      "audience": 5037,
      "conditions": 5038,
      "intensity": 5039,
      "##pool": 5040,
      "##atops": 5041,
      "##icle": 5042,
      "shar": 5043,
      "bob": 5044,
      "canc": 5045,
      "charl": 5046,
      "vocal": 5047,
      "rainfall": 5048,
      "struck": 5049,
      "foreign": 5050,
      "soviet": 5051,
      "fill": 5052,
      "##ees": 5053,
      "##can": 5054,
      "stating": 5055,
      "##aging": 5056,
      "recent": 5057,
      "residents": 5058,
      "incor": 5059,
      "##ylv": 5060,
      "historic": 5061,
      "meeting": 5062,
      "ultimately": 5063,
      "comedy": 5064,
      "65": 5065,
      "diam": 5066,
      "paper": 5067,
      "rate": 5068,
      "yellow": 5069,
      "##isk": 5070,
      "relief": 5071,
      "marriage": 5072,
      "appar": 5073,
      "genus": 5074,
      "1994": 5075,
      "armed": 5076,
      "smith": 5077,
      "transl": 5078,
      "refused": 5079,
      "jackson": 5080,
      "carolina": 5081,
      "baby": 5082,
      "habit": 5083,
      "push": 5084,
      "##emic": 5085,
      "singer": 5086,
      "confir": 5087,
      "ironcl": 5088,
      "heavily": 5089,
      "academy": 5090,
      "symb": 5091,
      "##ented": 5092,
      "alice": 5093,
      "enjoy": 5094,
      "180": 5095,
      "##izing": 5096,
      "famil": 5097,
      "personnel": 5098,
      "honor": 5099,
      "separate": 5100,
      "bodies": 5101,
      "ott": 5102,
      "environ": 5103,
      "51": 5104,
      "alex": 5105,
      "dv": 5106,
      "##kel": 5107,
      "##ican": 5108,
      "##rian": 5109,
      "means": 5110,
      "##ension": 5111,
      "polish": 5112,
      "entertain": 5113,
      "levels": 5114,
      "cultural": 5115,
      "joseph": 5116,
      "slightly": 5117,
      "bid": 5118,
      "bene": 5119,
      "mis": 5120,
      "nix": 5121,
      "overs": 5122,
      "##inal": 5123,
      "ash": 5124,
      "coming": 5125,
      "suc": 5126,
      "sust": 5127,
      "countries": 5128,
      "burns": 5129,
      "strike": 5130,
      "condoms": 5131,
      "analys": 5132,
      "76": 5133,
      "dur": 5134,
      "mol": 5135,
      "perfect": 5136,
      "resc": 5137,
      "respond": 5138,
      "declared": 5139,
      "peaked": 5140,
      "respectively": 5141,
      "piano": 5142,
      "stadium": 5143,
      "da": 5144,
      "##ev": 5145,
      "##house": 5146,
      "##icient": 5147,
      "presented": 5148,
      "labor": 5149,
      "snow": 5150,
      "reduced": 5151,
      "safe": 5152,
      "##standing": 5153,
      "imperial": 5154,
      "##ylvania": 5155,
      "44": 5156,
      "fow": 5157,
      "mess": 5158,
      "##uated": 5159,
      "##atives": 5160,
      "##ette": 5161,
      "##ogue": 5162,
      "1992": 5163,
      "contrast": 5164,
      "legal": 5165,
      "progress": 5166,
      "patr": 5167,
      "activity": 5168,
      "proteins": 5169,
      "penns": 5170,
      "cab": 5171,
      "nick": 5172,
      "ray": 5173,
      "rug": 5174,
      "##gs": 5175,
      "prince": 5176,
      "prison": 5177,
      "formation": 5178,
      "distance": 5179,
      "completely": 5180,
      "##apped": 5181,
      "elev": 5182,
      "reinfor": 5183,
      "mech": 5184,
      "wear": 5185,
      "##uff": 5186,
      "alkan": 5187,
      "shr": 5188,
      "##rawn": 5189,
      "1990": 5190,
      "artists": 5191,
      "appearances": 5192,
      "alongside": 5193,
      "somers": 5194,
      "castle": 5195,
      "activities": 5196,
      "silver": 5197,
      "wounded": 5198,
      "tun": 5199,
      "##cing": 5200,
      "toward": 5201,
      "##oul": 5202,
      "##ete": 5203,
      "##illa": 5204,
      "sport": 5205,
      "themes": 5206,
      "efforts": 5207,
      "chris": 5208,
      "protest": 5209,
      "copies": 5210,
      "sexual": 5211,
      "widely": 5212,
      "reaction": 5213,
      "typh": 5214,
      "festival": 5215,
      "34": 5216,
      "bor": 5217,
      "et": 5218,
      "oil": 5219,
      "ros": 5220,
      "##pa": 5221,
      "##anas": 5222,
      "paris": 5223,
      "remix": 5224,
      "continues": 5225,
      "advent": 5226,
      "expected": 5227,
      "issues": 5228,
      "liverpool": 5229,
      "48": 5230,
      "9th": 5231,
      "core": 5232,
      "faced": 5233,
      "vess": 5234,
      "##iber": 5235,
      "thous": 5236,
      "fruit": 5237,
      "##ift": 5238,
      "actually": 5239,
      "job": 5240,
      "reports": 5241,
      "basket": 5242,
      "somal": 5243,
      "torped": 5244,
      "transferred": 5245,
      "dynast": 5246,
      "virginia": 5247,
      "washington": 5248,
      "nixon": 5249,
      "torpedo": 5250,
      "3rd": 5251,
      "bott": 5252,
      "fair": 5253,
      "mind": 5254,
      "##track": 5255,
      "##aj": 5256,
      "##esis": 5257,
      "inches": 5258,
      "spl": 5259,
      "direction": 5260,
      "1970": 5261,
      "busch": 5262,
      "looking": 5263,
      "admir": 5264,
      "concluded": 5265,
      "somerset": 5266,
      "bishop": 5267,
      "jul": 5268,
      "lot": 5269,
      "##bre": 5270,
      "print": 5271,
      "##athan": 5272,
      "dise": 5273,
      "armour": 5274,
      "australians": 5275,
      "pattern": 5276,
      "opportun": 5277,
      "soundtrack": 5278,
      "primarily": 5279,
      "withdraw": 5280,
      "exhib": 5281,
      "question": 5282,
      "candid": 5283,
      "pennsylvania": 5284,
      "bh": 5285,
      "mic": 5286,
      "mob": 5287,
      "sister": 5288,
      "##stone": 5289,
      "##ires": 5290,
      "spain": 5291,
      "energy": 5292,
      "manu": 5293,
      "suppl": 5294,
      "##while": 5295,
      "officials": 5296,
      "strugg": 5297,
      "korean": 5298,
      "mosley": 5299,
      "##bon": 5300,
      "##bour": 5301,
      "reform": 5302,
      "##ulations": 5303,
      "##abor": 5304,
      "boat": 5305,
      "actions": 5306,
      "parents": 5307,
      "calling": 5308,
      "designated": 5309,
      "describes": 5310,
      "effort": 5311,
      "democr": 5312,
      "deliv": 5313,
      "words": 5314,
      "sequence": 5315,
      "louis": 5316,
      "vietnam": 5317,
      "tournament": 5318,
      "52": 5319,
      "aid": 5320,
      "mouth": 5321,
      "naz": 5322,
      "##greg": 5323,
      "##ka": 5324,
      "##hold": 5325,
      "##era": 5326,
      "##use": 5327,
      "##bery": 5328,
      "managed": 5329,
      "marine": 5330,
      "attention": 5331,
      "therefore": 5332,
      "broken": 5333,
      "invasion": 5334,
      "1942": 5335,
      "distinct": 5336,
      "excav": 5337,
      "nuclear": 5338,
      "revealed": 5339,
      "manufact": 5340,
      "49": 5341,
      "##hood": 5342,
      "##aven": 5343,
      "182": 5344,
      "defensive": 5345,
      "seasons": 5346,
      "mainly": 5347,
      "instr": 5348,
      "##iami": 5349,
      "featuring": 5350,
      "winter": 5351,
      "resulting": 5352,
      "glob": 5353,
      "demonst": 5354,
      "typically": 5355,
      "says": 5356,
      "becomes": 5357,
      "accepted": 5358,
      "ring": 5359,
      "sor": 5360,
      "tel": 5361,
      "##ingu": 5362,
      "##oud": 5363,
      "##idian": 5364,
      "##imony": 5365,
      "weather": 5366,
      "finals": 5367,
      "opera": 5368,
      "concent": 5369,
      "sense": 5370,
      "##lam": 5371,
      "##once": 5372,
      "##enant": 5373,
      "chair": 5374,
      "##apo": 5375,
      "scale": 5376,
      "181": 5377,
      "plays": 5378,
      "else": 5379,
      "landing": 5380,
      "medical": 5381,
      "hotel": 5382,
      "practice": 5383,
      "angeles": 5384,
      "domest": 5385,
      "spirit": 5386,
      "fowler": 5387,
      "dun": 5388,
      "ec": 5389,
      "fully": 5390,
      "mir": 5391,
      "miami": 5392,
      "roles": 5393,
      "contact": 5394,
      "##ends": 5395,
      "minnes": 5396,
      "description": 5397,
      "champion": 5398,
      "liber": 5399,
      "quality": 5400,
      "flying": 5401,
      "channel": 5402,
      "minnesota": 5403,
      "46": 5404,
      "64": 5405,
      "onto": 5406,
      "recomm": 5407,
      "scoring": 5408,
      "ability": 5409,
      "##aha": 5410,
      "authority": 5411,
      "illust": 5412,
      "poetry": 5413,
      "financial": 5414,
      "entertainment": 5415,
      "kent": 5416,
      "lu": 5417,
      "ps": 5418,
      "tank": 5419,
      "wave": 5420,
      "inch": 5421,
      "##itness": 5422,
      "##ela": 5423,
      "##essa": 5424,
      "##essor": 5425,
      "enemy": 5426,
      "elected": 5427,
      "exped": 5428,
      "model": 5429,
      "observed": 5430,
      "meanwhile": 5431,
      "volun": 5432,
      "losing": 5433,
      "55": 5434,
      "cra": 5435,
      "kar": 5436,
      "##ta": 5437,
      "##ha": 5438,
      "alone": 5439,
      "##essions": 5440,
      "neigh": 5441,
      "manchester": 5442,
      "column": 5443,
      "southeast": 5444,
      "surre": 5445,
      "portion": 5446,
      "showed": 5447,
      "encoun": 5448,
      "##ceeded": 5449,
      "scotland": 5450,
      "bint": 5451,
      "rar": 5452,
      "##yan": 5453,
      "##ych": 5454,
      "##clus": 5455,
      "relatively": 5456,
      "acting": 5457,
      "##ledge": 5458,
      "meridian": 5459,
      "planet": 5460,
      "surrounding": 5461,
      "mechan": 5462,
      "typhoon": 5463,
      "bintulu": 5464,
      "cities": 5465,
      "mog": 5466,
      "tree": 5467,
      "tik": 5468,
      "##iro": 5469,
      "##lers": 5470,
      "##ems": 5471,
      "##osh": 5472,
      "offer": 5473,
      "emot": 5474,
      "##ologists": 5475,
      "leader": 5476,
      "owned": 5477,
      "convers": 5478,
      "influenced": 5479,
      "homes": 5480,
      "independence": 5481,
      "sources": 5482,
      "beyonce": 5483,
      "moment": 5484,
      "maximum": 5485,
      "incorpor": 5486,
      "environment": 5487,
      "kak": 5488,
      "##alty": 5489,
      "meyer": 5490,
      "floor": 5491,
      "drive": 5492,
      "1941": 5493,
      "survey": 5494,
      "sales": 5495,
      "baseball": 5496,
      "narrow": 5497,
      "russian": 5498,
      "bat": 5499,
      "cric": 5500,
      "die": 5501,
      "eth": 5502,
      "##de": 5503,
      "##ris": 5504,
      "##rid": 5505,
      "##pole": 5506,
      "##anz": 5507,
      "##icles": 5508,
      "height": 5509,
      "spread": 5510,
      "perm": 5511,
      "coal": 5512,
      "columb": 5513,
      "types": 5514,
      "turk": 5515,
      "paint": 5516,
      "protein": 5517,
      "hawai": 5518,
      "dod": 5519,
      "rid": 5520,
      "sle": 5521,
      "##enz": 5522,
      "anderson": 5523,
      "##ications": 5524,
      "##the": 5525,
      "##ura": 5526,
      "chronic": 5527,
      "webs": 5528,
      "emph": 5529,
      "sets": 5530,
      "##elsh": 5531,
      "mountains": 5532,
      "expressed": 5533,
      "cannot": 5534,
      "intelligence": 5535,
      "cricket": 5536,
      "dance": 5537,
      "##rate": 5538,
      "##onents": 5539,
      "##isa": 5540,
      "##utions": 5541,
      "conver": 5542,
      "##uled": 5543,
      "orb": 5544,
      "##ovic": 5545,
      "flag": 5546,
      "produce": 5547,
      "dress": 5548,
      "churchill": 5549,
      "organized": 5550,
      "##where": 5551,
      "equip": 5552,
      "represented": 5553,
      "potential": 5554,
      "dissip": 5555,
      "adopted": 5556,
      "cadm": 5557,
      "abandoned": 5558,
      "advantage": 5559,
      "categ": 5560,
      "hors": 5561,
      "luc": 5562,
      "pit": 5563,
      "ta": 5564,
      "welsh": 5565,
      "##rical": 5566,
      "##cy": 5567,
      "##he": 5568,
      "##acement": 5569,
      "##road": 5570,
      "##abb": 5571,
      "spect": 5572,
      "advert": 5573,
      "perman": 5574,
      "specim": 5575,
      "1986": 5576,
      "passing": 5577,
      "standing": 5578,
      "richmond": 5579,
      "structures": 5580,
      "flooding": 5581,
      "synth": 5582,
      "newspaper": 5583,
      "dang": 5584,
      "##town": 5585,
      "##cript": 5586,
      "##burg": 5587,
      "##oper": 5588,
      "unkn": 5589,
      "appeal": 5590,
      "attrib": 5591,
      "poly": 5592,
      "doing": 5593,
      "tried": 5594,
      "capture": 5595,
      "behav": 5596,
      "freeway": 5597,
      "battery": 5598,
      "battleship": 5599,
      "rugby": 5600,
      "cadmium": 5601,
      "fat": 5602,
      "kir": 5603,
      "lives": 5604,
      "sail": 5605,
      "##rane": 5606,
      "##cle": 5607,
      "andrew": 5608,
      "##ills": 5609,
      "divided": 5610,
      "founded": 5611,
      "1940": 5612,
      "extr": 5613,
      "trial": 5614,
      "titled": 5615,
      "farm": 5616,
      "authorities": 5617,
      "earliest": 5618,
      "sites": 5619,
      "doub": 5620,
      "letter": 5621,
      "journey": 5622,
      "##uzz": 5623,
      "prominent": 5624,
      "iv": 5625,
      "pap": 5626,
      "##gal": 5627,
      "##uj": 5628,
      "##uous": 5629,
      "##eton": 5630,
      "compound": 5631,
      "avenue": 5632,
      "##arked": 5633,
      "viewers": 5634,
      "physical": 5635,
      "emphas": 5636,
      "bell": 5637,
      "cit": 5638,
      "##writ": 5639,
      "adj": 5640,
      "twice": 5641,
      "##issipp": 5642,
      "workers": 5643,
      "broke": 5644,
      "1988": 5645,
      "mississipp": 5646,
      "repe": 5647,
      "titles": 5648,
      "illino": 5649,
      "achieved": 5650,
      "dedicated": 5651,
      "folk": 5652,
      "basketball": 5653,
      "tikal": 5654,
      "cem": 5655,
      "##lim": 5656,
      "##nospondyl": 5657,
      "##wide": 5658,
      "##ona": 5659,
      "compar": 5660,
      "peron": 5661,
      "##izes": 5662,
      "actress": 5663,
      "filming": 5664,
      "write": 5665,
      "operated": 5666,
      "edward": 5667,
      "returning": 5668,
      "officially": 5669,
      "repair": 5670,
      "affected": 5671,
      "apart": 5672,
      "currently": 5673,
      "scholars": 5674,
      "domestic": 5675,
      "mogad": 5676,
      "41": 5677,
      "hers": 5678,
      "ka": 5679,
      "lane": 5680,
      "oh": 5681,
      "sar": 5682,
      "##enge": 5683,
      "spot": 5684,
      "##send": 5685,
      "note": 5686,
      "weak": 5687,
      "interchange": 5688,
      "campus": 5689,
      "temnospondyl": 5690,
      "basis": 5691,
      "rhodes": 5692,
      "engineer": 5693,
      "chapel": 5694,
      "measure": 5695,
      "piece": 5696,
      "mentioned": 5697,
      "mississippi": 5698,
      "gib": 5699,
      "sens": 5700,
      "tact": 5701,
      "##och": 5702,
      "##oms": 5703,
      "##ella": 5704,
      "attended": 5705,
      "colony": 5706,
      "foundation": 5707,
      "slam": 5708,
      "johnson": 5709,
      "battalions": 5710,
      "paid": 5711,
      "individuals": 5712,
      "braath": 5713,
      "straight": 5714,
      "kakapo": 5715,
      "lb": 5716,
      "##bl": 5717,
      "##asy": 5718,
      "shape": 5719,
      "##ishu": 5720,
      "try": 5721,
      "grass": 5722,
      "agric": 5723,
      "weight": 5724,
      "##icted": 5725,
      "older": 5726,
      "1960s": 5727,
      "youth": 5728,
      "classic": 5729,
      "historian": 5730,
      "letters": 5731,
      "determined": 5732,
      "weapons": 5733,
      "equipment": 5734,
      "unknown": 5735,
      "43": 5736,
      "##eck": 5737,
      "images": 5738,
      "orders": 5739,
      "turner": 5740,
      "europ": 5741,
      "glass": 5742,
      "killing": 5743,
      "request": 5744,
      "religion": 5745,
      "senior": 5746,
      "khan": 5747,
      "unlike": 5748,
      "56": 5749,
      "bull": 5750,
      "cin": 5751,
      "hms": 5752,
      "hung": 5753,
      "kur": 5754,
      "##iot": 5755,
      "##bird": 5756,
      "##hl": 5757,
      "frag": 5758,
      "proved": 5759,
      "clar": 5760,
      "contain": 5761,
      "allied": 5762,
      "apple": 5763,
      "consisted": 5764,
      "singing": 5765,
      "1980s": 5766,
      "townsend": 5767,
      "protection": 5768,
      "favour": 5769,
      "economic": 5770,
      "beyond": 5771,
      "digital": 5772,
      "analysis": 5773,
      "bost": 5774,
      "gam": 5775,
      "vic": 5776,
      "##iations": 5777,
      "##urb": 5778,
      "alab": 5779,
      "shel": 5780,
      "executive": 5781,
      "##athus": 5782,
      "attorn": 5783,
      "guest": 5784,
      "student": 5785,
      "##fully": 5786,
      "179": 5787,
      "extra": 5788,
      "roads": 5789,
      "supporting": 5790,
      "grew": 5791,
      "##ancy": 5792,
      "laid": 5793,
      "element": 5794,
      "causing": 5795,
      "projects": 5796,
      "encour": 5797,
      "rosebery": 5798,
      "dynasty": 5799,
      "attorney": 5800,
      "93": 5801,
      "au": 5802,
      "dar": 5803,
      "dog": 5804,
      "dub": 5805,
      "pu": 5806,
      "##rative": 5807,
      "##sen": 5808,
      "##beer": 5809,
      "stock": 5810,
      "shiva": 5811,
      "##istry": 5812,
      "notable": 5813,
      "##ached": 5814,
      "cook": 5815,
      "americans": 5816,
      "supply": 5817,
      "advanced": 5818,
      "raj": 5819,
      "walpole": 5820,
      "composition": 5821,
      "rapidly": 5822,
      "crowd": 5823,
      "multiple": 5824,
      "meyerbeer": 5825,
      "mogadishu": 5826,
      "agricult": 5827,
      "din": 5828,
      "nes": 5829,
      "nest": 5830,
      "yue": 5831,
      "##wise": 5832,
      "##iana": 5833,
      "computer": 5834,
      "attend": 5835,
      "finkel": 5836,
      "charge": 5837,
      "seconds": 5838,
      "reaching": 5839,
      "skin": 5840,
      "possibly": 5841,
      "believe": 5842,
      "claims": 5843,
      "golden": 5844,
      "hait": 5845,
      "promoted": 5846,
      "cerem": 5847,
      "secretary": 5848,
      "target": 5849,
      "nicole": 5850,
      "disease": 5851,
      "finkelstein": 5852,
      "5th": 5853,
      "97": 5854,
      "bc": 5855,
      "tessa": 5856,
      "##pass": 5857,
      "##vin": 5858,
      "##ano": 5859,
      "##isters": 5860,
      "##rect": 5861,
      "##ola": 5862,
      "fresh": 5863,
      "##umber": 5864,
      "neut": 5865,
      "unf": 5866,
      "trail": 5867,
      "prime": 5868,
      "fired": 5869,
      "##ogen": 5870,
      "mend": 5871,
      "consecutive": 5872,
      "joint": 5873,
      "minim": 5874,
      "1985": 5875,
      "1944": 5876,
      "barb": 5877,
      "1970s": 5878,
      "settlement": 5879,
      "identified": 5880,
      "treaty": 5881,
      "choice": 5882,
      "doctor": 5883,
      "francis": 5884,
      "kilometres": 5885,
      "entrance": 5886,
      "ottoman": 5887,
      "4th": 5888,
      "53": 5889,
      "ak": 5890,
      "ahead": 5891,
      "fan": 5892,
      "hope": 5893,
      "jump": 5894,
      "kg": 5895,
      "rod": 5896,
      "sr": 5897,
      "##win": 5898,
      "##ala": 5899,
      "chor": 5900,
      "18th": 5901,
      "flank": 5902,
      "actors": 5903,
      "follows": 5904,
      "trip": 5905,
      "require": 5906,
      "suggests": 5907,
      "propos": 5908,
      "criticized": 5909,
      "animal": 5910,
      "administration": 5911,
      "lieut": 5912,
      "libr": 5913,
      "rise": 5914,
      "##uct": 5915,
      "##tv": 5916,
      "##elm": 5917,
      "chos": 5918,
      "newly": 5919,
      "120": 5920,
      "steel": 5921,
      "kept": 5922,
      "reference": 5923,
      "archaeological": 5924,
      "couple": 5925,
      "portugues": 5926,
      "sustained": 5927,
      "illinois": 5928,
      "alabama": 5929,
      "gained": 5930,
      "task": 5931,
      "##ua": 5932,
      "##orter": 5933,
      "##rel": 5934,
      "##omy": 5935,
      "##aine": 5936,
      "##prise": 5937,
      "steam": 5938,
      "opin": 5939,
      "males": 5940,
      "knowledge": 5941,
      "nominated": 5942,
      "philippines": 5943,
      "volunte": 5944,
      "braathens": 5945,
      "portuguese": 5946,
      "bbc": 5947,
      "fix": 5948,
      "tint": 5949,
      "wed": 5950,
      "##oe": 5951,
      "##bitt": 5952,
      "send": 5953,
      "##gend": 5954,
      "feed": 5955,
      "1964": 5956,
      "results": 5957,
      "speak": 5958,
      "buried": 5959,
      "function": 5960,
      "walls": 5961,
      "pitched": 5962,
      "growing": 5963,
      "waters": 5964,
      "pieces": 5965,
      "constitution": 5966,
      "62": 5967,
      "cub": 5968,
      "dry": 5969,
      "data": 5970,
      "fought": 5971,
      "md": 5972,
      "mut": 5973,
      "sought": 5974,
      "##more": 5975,
      "thing": 5976,
      "##iring": 5977,
      "sud": 5978,
      "pros": 5979,
      "##ighth": 5980,
      "##astic": 5981,
      "##outs": 5982,
      "secondary": 5983,
      "arms": 5984,
      "surviv": 5985,
      "cases": 5986,
      "subsequent": 5987,
      "platform": 5988,
      "literature": 5989,
      "54": 5990,
      "57": 5991,
      "fal": 5992,
      "hell": 5993,
      "ira": 5994,
      "##aust": 5995,
      "##adel": 5996,
      "exec": 5997,
      "reserv": 5998,
      "serve": 5999,
      "impress": 6000,
      "studios": 6001,
      "landfall": 6002,
      "province": 6003,
      "antimony": 6004,
      "clean": 6005,
      "debuted": 6006,
      "charts": 6007,
      "animals": 6008,
      "seems": 6009,
      "confirmed": 6010,
      "chosen": 6011,
      "bru": 6012,
      "pine": 6013,
      "##itable": 6014,
      "consequ": 6015,
      "1987": 6016,
      "passes": 6017,
      "poems": 6018,
      "olympic": 6019,
      "policy": 6020,
      "dismiss": 6021,
      "simply": 6022,
      "##onymous": 6023,
      "dvd": 6024,
      "95": 6025,
      "cust": 6026,
      "rac": 6027,
      "tell": 6028,
      "shell": 6029,
      "unsu": 6030,
      "trou": 6031,
      "finish": 6032,
      "regions": 6033,
      "raid": 6034,
      "solo": 6035,
      "importance": 6036,
      "penins": 6037,
      "condition": 6038,
      "escape": 6039,
      "injury": 6040,
      "institute": 6041,
      "granted": 6042,
      "zhou": 6043,
      "cart": 6044,
      "gas": 6045,
      "none": 6046,
      "sarn": 6047,
      "yank": 6048,
      "##mes": 6049,
      "##ij": 6050,
      "##lings": 6051,
      "##uan": 6052,
      "##aen": 6053,
      "##theless": 6054,
      "##ador": 6055,
      "##igr": 6056,
      "legend": 6057,
      "content": 6058,
      "containing": 6059,
      "fey": 6060,
      "eva": 6061,
      "consp": 6062,
      "assass": 6063,
      "underground": 6064,
      "filmed": 6065,
      "southwest": 6066,
      "drama": 6067,
      "publish": 6068,
      "incident": 6069,
      "creation": 6070,
      "visited": 6071,
      "weekly": 6072,
      "criticism": 6073,
      "railway": 6074,
      "dropped": 6075,
      "boston": 6076,
      "lieutenant": 6077,
      "tintin": 6078,
      "600": 6079,
      "rome": 6080,
      "rub": 6081,
      "vice": 6082,
      "##mun": 6083,
      "##ez": 6084,
      "##iles": 6085,
      "##ulate": 6086,
      "share": 6087,
      "train": 6088,
      "##ordin": 6089,
      "parall": 6090,
      "setting": 6091,
      "address": 6092,
      "1984": 6093,
      "depth": 6094,
      "barrow": 6095,
      "1972": 6096,
      "famous": 6097,
      "publication": 6098,
      "visual": 6099,
      "label": 6100,
      "wooden": 6101,
      "virt": 6102,
      "ceres": 6103,
      "wilh": 6104,
      "increasingly": 6105,
      "beauty": 6106,
      "necessary": 6107,
      "website": 6108,
      "aim": 6109,
      "gang": 6110,
      "gulf": 6111,
      "rare": 6112,
      "##born": 6113,
      "atm": 6114,
      "lew": 6115,
      "##ips": 6116,
      "maintained": 6117,
      "portra": 6118,
      "1947": 6119,
      "varanas": 6120,
      "evening": 6121,
      "crossing": 6122,
      "argent": 6123,
      "motor": 6124,
      "promotion": 6125,
      "growth": 6126,
      "problem": 6127,
      "controlled": 6128,
      "nesbitt": 6129,
      "varanasi": 6130,
      "catch": 6131,
      "eag": 6132,
      "ib": 6133,
      "ice": 6134,
      "matter": 6135,
      "tanks": 6136,
      "##edar": 6137,
      "asia": 6138,
      "congress": 6139,
      "dram": 6140,
      "km2": 6141,
      "starts": 6142,
      "delay": 6143,
      "versions": 6144,
      "prompt": 6145,
      "odaen": 6146,
      "conduct": 6147,
      "families": 6148,
      "atmosph": 6149,
      "61": 6150,
      "cav": 6151,
      "dan": 6152,
      "fame": 6153,
      "gord": 6154,
      "rival": 6155,
      "witness": 6156,
      "##jo": 6157,
      "##arian": 6158,
      "##thur": 6159,
      "##olved": 6160,
      "intr": 6161,
      "carl": 6162,
      "colour": 6163,
      "retired": 6164,
      "belong": 6165,
      "jup": 6166,
      "restaur": 6167,
      "summ": 6168,
      "torres": 6169,
      "williams": 6170,
      "argued": 6171,
      "agreement": 6172,
      "urban": 6173,
      "##works": 6174,
      "temperature": 6175,
      "seventh": 6176,
      "dumont": 6177,
      "odaenathus": 6178,
      "72": 6179,
      "bit": 6180,
      "fung": 6181,
      "poll": 6182,
      "rit": 6183,
      "tetr": 6184,
      "##met": 6185,
      "rejected": 6186,
      "##oted": 6187,
      "reconst": 6188,
      "cool": 6189,
      "wars": 6190,
      "1989": 6191,
      "1960": 6192,
      "1969": 6193,
      "avoid": 6194,
      "planning": 6195,
      "colonial": 6196,
      "losses": 6197,
      "eyes": 6198,
      "sarnia": 6199,
      "96": 6200,
      "dw": 6201,
      "dani": 6202,
      "jon": 6203,
      "##ridge": 6204,
      "##cop": 6205,
      "##ivity": 6206,
      "##iments": 6207,
      "##osoph": 6208,
      "##umes": 6209,
      "##ipl": 6210,
      "adap": 6211,
      "adapt": 6212,
      "writes": 6213,
      "crash": 6214,
      "extensive": 6215,
      "130": 6216,
      "explained": 6217,
      "palest": 6218,
      "connected": 6219,
      "technology": 6220,
      "females": 6221,
      "industrial": 6222,
      "faith": 6223,
      "property": 6224,
      "73": 6225,
      "cry": 6226,
      "eat": 6227,
      "gives": 6228,
      "##mark": 6229,
      "##iced": 6230,
      "##ety": 6231,
      "##ote": 6232,
      "unique": 6233,
      "truth": 6234,
      "join": 6235,
      "register": 6236,
      "ell": 6237,
      "defin": 6238,
      "subm": 6239,
      "submar": 6240,
      "systems": 6241,
      "painting": 6242,
      "oxford": 6243,
      "thunderbird": 6244,
      "peninsula": 6245,
      "bes": 6246,
      "fash": 6247,
      "hart": 6248,
      "il": 6249,
      "outer": 6250,
      "risk": 6251,
      "vul": 6252,
      "##iant": 6253,
      "seg": 6254,
      "sund": 6255,
      "unus": 6256,
      "gram": 6257,
      "perh": 6258,
      "resemb": 6259,
      "roof": 6260,
      "nothing": 6261,
      "1990s": 6262,
      "severe": 6263,
      "steph": 6264,
      "##resp": 6265,
      "helms": 6266,
      "ideas": 6267,
      "premi": 6268,
      "scheduled": 6269,
      "jupiter": 6270,
      "81": 6271,
      "loy": 6272,
      "rog": 6273,
      "save": 6274,
      "theory": 6275,
      "##station": 6276,
      "##stream": 6277,
      "why": 6278,
      "##ayer": 6279,
      "italy": 6280,
      "recently": 6281,
      "reserve": 6282,
      "##awa": 6283,
      "ends": 6284,
      "distingu": 6285,
      "towns": 6286,
      "##ancing": 6287,
      "value": 6288,
      "commonly": 6289,
      "philosoph": 6290,
      "transportation": 6291,
      "employed": 6292,
      "scottish": 6293,
      "challeng": 6294,
      "failure": 6295,
      "weakened": 6296,
      "bottom": 6297,
      "perhaps": 6298,
      "fro": 6299,
      "greek": 6300,
      "kings": 6301,
      "nak": 6302,
      "rot": 6303,
      "rum": 6304,
      "selling": 6305,
      "wins": 6306,
      "##ule": 6307,
      "##ror": 6308,
      "##kh": 6309,
      "##kare": 6310,
      "##inity": 6311,
      "##ading": 6312,
      "##otyp": 6313,
      "comes": 6314,
      "neither": 6315,
      "descend": 6316,
      "remn": 6317,
      "belief": 6318,
      "freed": 6319,
      "volume": 6320,
      "entirely": 6321,
      "creating": 6322,
      "prepared": 6323,
      "dutch": 6324,
      "##eastern": 6325,
      "fantasy": 6326,
      "omaha": 6327,
      "horses": 6328,
      "herself": 6329,
      "85": 6330,
      "dated": 6331,
      "gain": 6332,
      "mong": 6333,
      "opt": 6334,
      "vert": 6335,
      "wides": 6336,
      "##nest": 6337,
      "##han": 6338,
      "##onent": 6339,
      "frame": 6340,
      "chose": 6341,
      "shaped": 6342,
      "##ifying": 6343,
      "arc": 6344,
      "trust": 6345,
      "contained": 6346,
      "marsh": 6347,
      "playstation": 6348,
      "##izations": 6349,
      "cooper": 6350,
      "max": 6351,
      "armor": 6352,
      "##azz": 6353,
      "significantly": 6354,
      "colonel": 6355,
      "facilities": 6356,
      "treatment": 6357,
      "participated": 6358,
      "contributed": 6359,
      "victoria": 6360,
      "frequently": 6361,
      "roughly": 6362,
      "wilhelm": 6363,
      "6th": 6364,
      "700": 6365,
      "lov": 6366,
      "mike": 6367,
      "zone": 6368,
      "ingr": 6369,
      "stan": 6370,
      "store": 6371,
      "##irt": 6372,
      "##ansas": 6373,
      "undert": 6374,
      "worldwide": 6375,
      "##erted": 6376,
      "1981": 6377,
      "convention": 6378,
      "calc": 6379,
      "opposed": 6380,
      "moon": 6381,
      "technique": 6382,
      "innis": 6383,
      "regarded": 6384,
      "martin": 6385,
      "jeff": 6386,
      "surrender": 6387,
      "craft": 6388,
      "hyp": 6389,
      "tall": 6390,
      "thin": 6391,
      "##asure": 6392,
      "##rete": 6393,
      "##odon": 6394,
      "orch": 6395,
      "indu": 6396,
      "##phia": 6397,
      "miner": 6398,
      "phase": 6399,
      "serving": 6400,
      "angle": 6401,
      "affair": 6402,
      "innings": 6403,
      "mccall": 6404,
      "premier": 6405,
      "economy": 6406,
      "occupied": 6407,
      "powers": 6408,
      "experienced": 6409,
      "psych": 6410,
      "##adelphia": 6411,
      "gordon": 6412,
      "800": 6413,
      "cited": 6414,
      "gross": 6415,
      "math": 6416,
      "rating": 6417,
      "sector": 6418,
      "##set": 6419,
      "##err": 6420,
      "##ality": 6421,
      "##asa": 6422,
      "highlight": 6423,
      "##issance": 6424,
      "aired": 6425,
      "strateg": 6426,
      "generation": 6427,
      "turning": 6428,
      "deaths": 6429,
      "household": 6430,
      "finding": 6431,
      "popularity": 6432,
      "lester": 6433,
      "pitcher": 6434,
      "##timore": 6435,
      "cardiff": 6436,
      "fellow": 6437,
      "negot": 6438,
      "baltimore": 6439,
      "slowly": 6440,
      "aspects": 6441,
      "molec": 6442,
      "supplies": 6443,
      "bin": 6444,
      "bart": 6445,
      "egg": 6446,
      "hang": 6447,
      "mist": 6448,
      "sin": 6449,
      "##la": 6450,
      "##ek": 6451,
      "stations": 6452,
      "isol": 6453,
      "##clusion": 6454,
      "marines": 6455,
      "brid": 6456,
      "subt": 6457,
      "passeng": 6458,
      "##apping": 6459,
      "1918": 6460,
      "speech": 6461,
      "declined": 6462,
      "successfully": 6463,
      "recognized": 6464,
      "semi": 6465,
      "egyptian": 6466,
      "purchased": 6467,
      "degree": 6468,
      "98": 6469,
      "bern": 6470,
      "cd": 6471,
      "dates": 6472,
      "rih": 6473,
      "##don": 6474,
      "##sw": 6475,
      "##isers": 6476,
      "##iled": 6477,
      "stages": 6478,
      "##lywood": 6479,
      "##apes": 6480,
      "resist": 6481,
      "resident": 6482,
      "usa": 6483,
      "arrival": 6484,
      "swed": 6485,
      "finds": 6486,
      "hamels": 6487,
      "massive": 6488,
      "##ships": 6489,
      "briefly": 6490,
      "breeding": 6491,
      "cinem": 6492,
      "rihanna": 6493,
      "59": 6494,
      "77": 6495,
      "eld": 6496,
      "ts": 6497,
      "vent": 6498,
      "##iqu": 6499,
      "altar": 6500,
      "seat": 6501,
      "amph": 6502,
      "##oked": 6503,
      "interior": 6504,
      "##wealth": 6505,
      "engaged": 6506,
      "soft": 6507,
      "transit": 6508,
      "1943": 6509,
      "1968": 6510,
      "expanded": 6511,
      "raaf": 6512,
      "effective": 6513,
      "collected": 6514,
      "commonwealth": 6515,
      "coastal": 6516,
      "biograph": 6517,
      "literary": 6518,
      "gradually": 6519,
      "croatia": 6520,
      "djed": 6521,
      "munic": 6522,
      "library": 6523,
      "66": 6524,
      "82": 6525,
      "cells": 6526,
      "caught": 6527,
      "haven": 6528,
      "mand": 6529,
      "nam": 6530,
      "tu": 6531,
      "tail": 6532,
      "##cription": 6533,
      "##pread": 6534,
      "##eratops": 6535,
      "deities": 6536,
      "plum": 6537,
      "##eller": 6538,
      "accident": 6539,
      "brothers": 6540,
      "simple": 6541,
      "1965": 6542,
      "concrete": 6543,
      "turns": 6544,
      "philadelphia": 6545,
      "motion": 6546,
      "commissioned": 6547,
      "mccart": 6548,
      "improved": 6549,
      "budget": 6550,
      "widespread": 6551,
      "djedkare": 6552,
      "71": 6553,
      "dial": 6554,
      "hib": 6555,
      "ron": 6556,
      "sie": 6557,
      "ub": 6558,
      "##ias": 6559,
      "##eed": 6560,
      "##eals": 6561,
      "##icks": 6562,
      "##rey": 6563,
      "leon": 6564,
      "##iance": 6565,
      "##ube": 6566,
      "impr": 6567,
      "decades": 6568,
      "##weight": 6569,
      "mush": 6570,
      "gameplay": 6571,
      "1939": 6572,
      "additionally": 6573,
      "billion": 6574,
      "chapter": 6575,
      "regarding": 6576,
      "pilot": 6577,
      "expedition": 6578,
      "municipal": 6579,
      "drawn": 6580,
      "fuel": 6581,
      "lor": 6582,
      "tend": 6583,
      "##iences": 6584,
      "##uate": 6585,
      "##ati": 6586,
      "##ato": 6587,
      "##atus": 6588,
      "##rected": 6589,
      "stones": 6590,
      "##ider": 6591,
      "cham": 6592,
      "##ava": 6593,
      "recru": 6594,
      "worth": 6595,
      "bright": 6596,
      "step": 6597,
      "headed": 6598,
      "developing": 6599,
      "17th": 6600,
      "oldest": 6601,
      "1950": 6602,
      "allows": 6603,
      "explos": 6604,
      "##white": 6605,
      "earthqu": 6606,
      "producers": 6607,
      "stopped": 6608,
      "violence": 6609,
      "existing": 6610,
      "responded": 6611,
      "crazy": 6612,
      "unsuccess": 6613,
      "fashion": 6614,
      "94": 6615,
      "drop": 6616,
      "igu": 6617,
      "ni": 6618,
      "rivers": 6619,
      "rene": 6620,
      "wwe": 6621,
      "ye": 6622,
      "##kin": 6623,
      "heard": 6624,
      "##illo": 6625,
      "lee": 6626,
      "##ieval": 6627,
      "marc": 6628,
      "maria": 6629,
      "flu": 6630,
      "centuries": 6631,
      "canal": 6632,
      "##graded": 6633,
      "crime": 6634,
      "steve": 6635,
      "receiving": 6636,
      "##iversary": 6637,
      "medieval": 6638,
      "routes": 6639,
      "corpor": 6640,
      "1914": 6641,
      "stret": 6642,
      "solid": 6643,
      "rules": 6644,
      "focused": 6645,
      "normal": 6646,
      "athletes": 6647,
      "temnospondyls": 6648,
      "applewhite": 6649,
      "drew": 6650,
      "map": 6651,
      "nba": 6652,
      "tas": 6653,
      "##dh": 6654,
      "##fort": 6655,
      "andy": 6656,
      "alf": 6657,
      "anonymous": 6658,
      "uns": 6659,
      "1946": 6660,
      "anything": 6661,
      "classified": 6662,
      "protect": 6663,
      "1950s": 6664,
      "myth": 6665,
      "streets": 6666,
      "falls": 6667,
      "holding": 6668,
      "astron": 6669,
      "reasons": 6670,
      "hydro": 6671,
      "converted": 6672,
      "mushroom": 6673,
      "ari": 6674,
      "ba": 6675,
      "eighth": 6676,
      "gab": 6677,
      "hind": 6678,
      "nerv": 6679,
      "##mans": 6680,
      "##lines": 6681,
      "##een": 6682,
      "##rons": 6683,
      "##ym": 6684,
      "##body": 6685,
      "##itors": 6686,
      "##amin": 6687,
      "reun": 6688,
      "##erse": 6689,
      "chains": 6690,
      "##anda": 6691,
      "##unk": 6692,
      "gray": 6693,
      "##assy": 6694,
      "##okes": 6695,
      "agent": 6696,
      "prefer": 6697,
      "decline": 6698,
      "charges": 6699,
      "mah": 6700,
      "110": 6701,
      "177": 6702,
      "1971": 6703,
      "1930s": 6704,
      "convoy": 6705,
      "politics": 6706,
      "details": 6707,
      "palace": 6708,
      "regional": 6709,
      "hills": 6710,
      "introduction": 6711,
      "tomb": 6712,
      "assistant": 6713,
      "learned": 6714,
      "sculpture": 6715,
      "delivered": 6716,
      "69": 6717,
      "jac": 6718,
      "lamb": 6719,
      "mine": 6720,
      "nich": 6721,
      "##itan": 6722,
      "##ifically": 6723,
      "exclus": 6724,
      "trying": 6725,
      "capable": 6726,
      "divisions": 6727,
      "12th": 6728,
      "adding": 6729,
      "1980": 6730,
      "churches": 6731,
      "fields": 6732,
      "purs": 6733,
      "championships": 6734,
      "settlers": 6735,
      "ode": 6736,
      "begun": 6737,
      "terror": 6738,
      "vehicles": 6739,
      "paintings": 6740,
      "permanent": 6741,
      "adapted": 6742,
      "ai": 6743,
      "ble": 6744,
      "fu": 6745,
      "hem": 6746,
      "rural": 6747,
      "##tw": 6748,
      "##eds": 6749,
      "##olis": 6750,
      "##oses": 6751,
      "plate": 6752,
      "lev": 6753,
      "indig": 6754,
      "formula": 6755,
      "elimin": 6756,
      "belt": 6757,
      "performing": 6758,
      "1975": 6759,
      "owners": 6760,
      "basin": 6761,
      "surviving": 6762,
      "electric": 6763,
      "rebu": 6764,
      "dominated": 6765,
      "negative": 6766,
      "accompanied": 6767,
      "pagan": 6768,
      "disappear": 6769,
      "lewis": 6770,
      "han": 6771,
      "hits": 6772,
      "rand": 6773,
      "sections": 6774,
      "util": 6775,
      "##iar": 6776,
      "##oir": 6777,
      "##ingly": 6778,
      "##asc": 6779,
      "##ersey": 6780,
      "shop": 6781,
      "comic": 6782,
      "supre": 6783,
      "firm": 6784,
      "boys": 6785,
      "graves": 6786,
      "decor": 6787,
      "decre": 6788,
      "decade": 6789,
      "acres": 6790,
      "article": 6791,
      "downtown": 6792,
      "missing": 6793,
      "humans": 6794,
      "lasted": 6795,
      "keats": 6796,
      "speaking": 6797,
      "discovery": 6798,
      "cougar": 6799,
      "cambod": 6800,
      "purpose": 6801,
      "chorus": 6802,
      "boss": 6803,
      "cul": 6804,
      "pin": 6805,
      "sid": 6806,
      "sap": 6807,
      "##rom": 6808,
      "##yles": 6809,
      "##elle": 6810,
      "##imb": 6811,
      "chel": 6812,
      "##istan": 6813,
      "##ocated": 6814,
      "##sea": 6815,
      "subs": 6816,
      "##amese": 6817,
      "transform": 6818,
      "160": 6819,
      "greg": 6820,
      "ways": 6821,
      "possibility": 6822,
      "authors": 6823,
      "similarly": 6824,
      "viewed": 6825,
      "superior": 6826,
      "experiment": 6827,
      "survived": 6828,
      "combination": 6829,
      "involvement": 6830,
      "dougl": 6831,
      "safety": 6832,
      "ambass": 6833,
      "principal": 6834,
      "fictional": 6835,
      "thirty": 6836,
      "wrestling": 6837,
      "87": 6838,
      "bought": 6839,
      "bats": 6840,
      "cens": 6841,
      "hired": 6842,
      "tells": 6843,
      "wolf": 6844,
      "##zz": 6845,
      "##ini": 6846,
      "##thm": 6847,
      "##uls": 6848,
      "exit": 6849,
      "enl": 6850,
      "mario": 6851,
      "crimin": 6852,
      "pope": 6853,
      "transm": 6854,
      "instruct": 6855,
      "didn": 6856,
      "1966": 6857,
      "serves": 6858,
      "justice": 6859,
      "characteristics": 6860,
      "##ographic": 6861,
      "younger": 6862,
      "crossed": 6863,
      "##shire": 6864,
      "technical": 6865,
      "academic": 6866,
      "existence": 6867,
      "princip": 6868,
      "examples": 6869,
      "shooting": 6870,
      "consisting": 6871,
      "habitat": 6872,
      "conspir": 6873,
      "ml": 6874,
      "pack": 6875,
      "##oen": 6876,
      "##kins": 6877,
      "##isy": 6878,
      "##ighter": 6879,
      "spr": 6880,
      "abb": 6881,
      "door": 6882,
      "quite": 6883,
      "crus": 6884,
      "##ifications": 6885,
      "164": 6886,
      "1945": 6887,
      "juan": 6888,
      "commanded": 6889,
      "triple": 6890,
      "corresp": 6891,
      "1916": 6892,
      "everything": 6893,
      "programs": 6894,
      "colonies": 6895,
      "closely": 6896,
      "braz": 6897,
      "##borough": 6898,
      "substant": 6899,
      "establishment": 6900,
      "vietnamese": 6901,
      "##ershaw": 6902,
      "distribution": 6903,
      "sweet": 6904,
      "conservation": 6905,
      "symbol": 6906,
      "correspond": 6907,
      "banks": 6908,
      "dru": 6909,
      "nap": 6910,
      "nathan": 6911,
      "rick": 6912,
      "ward": 6913,
      "##roll": 6914,
      "##come": 6915,
      "##ping": 6916,
      "##utation": 6917,
      "items": 6918,
      "anton": 6919,
      "##uma": 6920,
      "##abil": 6921,
      "##sey": 6922,
      "abu": 6923,
      "attached": 6924,
      "consists": 6925,
      "longest": 6926,
      "provides": 6927,
      "1973": 6928,
      "1967": 6929,
      "walter": 6930,
      "courts": 6931,
      "1915": 6932,
      "reviewers": 6933,
      "storyline": 6934,
      "sentence": 6935,
      "neck": 6936,
      "opposition": 6937,
      "intersection": 6938,
      "wis": 6939,
      "##rum": 6940,
      "##rang": 6941,
      "conqu": 6942,
      "arthur": 6943,
      "leaves": 6944,
      "recre": 6945,
      "resour": 6946,
      "upd": 6947,
      "joe": 6948,
      "defined": 6949,
      "calls": 6950,
      "continuing": 6951,
      "editor": 6952,
      "1974": 6953,
      "moder": 6954,
      "convection": 6955,
      "views": 6956,
      "priest": 6957,
      "facing": 6958,
      "railroad": 6959,
      "aston": 6960,
      "accompl": 6961,
      "nucleus": 6962,
      "utc": 6963,
      "controversy": 6964,
      "occasionally": 6965,
      "chemical": 6966,
      "enjoyed": 6967,
      "repeated": 6968,
      "63": 6969,
      "gully": 6970,
      "kenn": 6971,
      "kershaw": 6972,
      "vision": 6973,
      "wish": 6974,
      "##hire": 6975,
      "##eda": 6976,
      "ones": 6977,
      "##rier": 6978,
      "reconna": 6979,
      "guide": 6980,
      "##ropri": 6981,
      "landed": 6982,
      "1978": 6983,
      "1952": 6984,
      "1919": 6985,
      "1930": 6986,
      "skull": 6987,
      "legacy": 6988,
      "entering": 6989,
      "holy": 6990,
      "ruled": 6991,
      "cruiser": 6992,
      "embassy": 6993,
      "girls": 6994,
      "renamed": 6995,
      "rolling": 6996,
      "##worth": 6997,
      "deployed": 6998,
      "opportunity": 6999,
      "mendes": 7000,
      "douglas": 7001,
      "reconnaissance": 7002,
      "bath": 7003,
      "hull": 7004,
      "lic": 7005,
      "mu": 7006,
      "von": 7007,
      "##iary": 7008,
      "##eb": 7009,
      "##ycl": 7010,
      "inner": 7011,
      "##acity": 7012,
      "chance": 7013,
      "##ules": 7014,
      "shear": 7015,
      "arsen": 7016,
      "##aka": 7017,
      "bron": 7018,
      "guy": 7019,
      "locations": 7020,
      "1976": 7021,
      "missions": 7022,
      "initi": 7023,
      "historians": 7024,
      "funding": 7025,
      "applied": 7026,
      "citiz": 7027,
      "iguan": 7028,
      "dating": 7029,
      "hin": 7030,
      "jersey": 7031,
      "lit": 7032,
      "wick": 7033,
      "##water": 7034,
      "##entially": 7035,
      "##acon": 7036,
      "albert": 7037,
      "##eme": 7038,
      "shared": 7039,
      "##iful": 7040,
      "intention": 7041,
      "agency": 7042,
      "goes": 7043,
      "finishing": 7044,
      "secure": 7045,
      "supposed": 7046,
      "populations": 7047,
      "infr": 7048,
      "simon": 7049,
      "175": 7050,
      "describing": 7051,
      "##ructure": 7052,
      "expans": 7053,
      "250": 7054,
      "clubs": 7055,
      "georg": 7056,
      "happy": 7057,
      "challenge": 7058,
      "benef": 7059,
      "turkish": 7060,
      "dissipated": 7061,
      "cemet": 7062,
      "thunderbirds": 7063,
      "68": 7064,
      "bush": 7065,
      "fit": 7066,
      "gate": 7067,
      "kang": 7068,
      "lisa": 7069,
      "tag": 7070,
      "theater": 7071,
      "##icop": 7072,
      "##rec": 7073,
      "##iday": 7074,
      "##imeter": 7075,
      "##ersed": 7076,
      "##iston": 7077,
      "exact": 7078,
      "lear": 7079,
      "butler": 7080,
      "##achus": 7081,
      "boise": 7082,
      "grade": 7083,
      "charter": 7084,
      "knew": 7085,
      "moves": 7086,
      "providing": 7087,
      "1979": 7088,
      "grey": 7089,
      "1917": 7090,
      "1936": 7091,
      "##ipping": 7092,
      "##araj": 7093,
      "engineering": 7094,
      "assistance": 7095,
      "instrument": 7096,
      "earthquake": 7097,
      "cemetery": 7098,
      "cot": 7099,
      "fine": 7100,
      "nc": 7101,
      "si": 7102,
      "sed": 7103,
      "sort": 7104,
      "##eline": 7105,
      "stal": 7106,
      "##ched": 7107,
      "##utz": 7108,
      "exerc": 7109,
      "spons": 7110,
      "twel": 7111,
      "soul": 7112,
      "##ublin": 7113,
      "invited": 7114,
      "##anny": 7115,
      "downlo": 7116,
      "depos": 7117,
      "helicop": 7118,
      "confron": 7119,
      "protagon": 7120,
      "greatly": 7121,
      "demand": 7122,
      "replacement": 7123,
      "sufficient": 7124,
      "certified": 7125,
      "derived": 7126,
      "macle": 7127,
      "ancest": 7128,
      "gallery": 7129,
      "considerable": 7130,
      "filled": 7131,
      "thousands": 7132,
      "admiral": 7133,
      "category": 7134,
      "7th": 7135,
      "bly": 7136,
      "crop": 7137,
      "gil": 7138,
      "jones": 7139,
      "tied": 7140,
      "##mat": 7141,
      "##ns": 7142,
      "##rence": 7143,
      "isab": 7144,
      "##usal": 7145,
      "shut": 7146,
      "cloud": 7147,
      "carbon": 7148,
      "teeth": 7149,
      "##aws": 7150,
      "knots": 7151,
      "stead": 7152,
      "1982": 7153,
      "1948": 7154,
      "advis": 7155,
      "passage": 7156,
      "protected": 7157,
      "myc": 7158,
      "communist": 7159,
      "replace": 7160,
      "hollywood": 7161,
      "civilian": 7162,
      "verte": 7163,
      "producing": 7164,
      "depicted": 7165,
      "dollar": 7166,
      "bono": 7167,
      "acquired": 7168,
      "picture": 7169,
      "succeeded": 7170,
      "rescue": 7171,
      "orchest": 7172,
      "amphib": 7173,
      "siege": 7174,
      "twelve": 7175,
      "dublin": 7176,
      "ech": 7177,
      "gw": 7178,
      "jay": 7179,
      "jain": 7180,
      "mtv": 7181,
      "oreg": 7182,
      "sang": 7183,
      "santa": 7184,
      "##eor": 7185,
      "##ext": 7186,
      "##ture": 7187,
      "##crib": 7188,
      "##imet": 7189,
      "##otes": 7190,
      "hear": 7191,
      "chan": 7192,
      "plain": 7193,
      "grav": 7194,
      "pret": 7195,
      "warri": 7196,
      "knock": 7197,
      "specifically": 7198,
      "successor": 7199,
      "crosses": 7200,
      "professor": 7201,
      "electronic": 7202,
      "inspir": 7203,
      "anthony": 7204,
      "remainder": 7205,
      "colorado": 7206,
      "ghost": 7207,
      "europium": 7208,
      "parallel": 7209,
      "daniel": 7210,
      "brazil": 7211,
      "oregon": 7212,
      "58": 7213,
      "dota": 7214,
      "jazz": 7215,
      "matt": 7216,
      "ori": 7217,
      "pyr": 7218,
      "rio": 7219,
      "tan": 7220,
      "##laim": 7221,
      "##aud": 7222,
      "##arm": 7223,
      "##rell": 7224,
      "##estone": 7225,
      "##agre": 7226,
      "orn": 7227,
      "marl": 7228,
      "pool": 7229,
      "acid": 7230,
      "whereas": 7231,
      "receive": 7232,
      "1963": 7233,
      "attacking": 7234,
      "typical": 7235,
      "getting": 7236,
      "flights": 7237,
      "athletic": 7238,
      "substit": 7239,
      "favorite": 7240,
      "concerns": 7241,
      "charlie": 7242,
      "wedding": 7243,
      "sudden": 7244,
      "sunday": 7245,
      "blythe": 7246,
      "78": 7247,
      "91": 7248,
      "dim": 7249,
      "dock": 7250,
      "jes": 7251,
      "kits": 7252,
      "##iable": 7253,
      "##gers": 7254,
      "##egr": 7255,
      "##ilton": 7256,
      "##adh": 7257,
      "stem": 7258,
      "##idae": 7259,
      "##opes": 7260,
      "##pping": 7261,
      "evita": 7262,
      "blocks": 7263,
      "knight": 7264,
      "##attle": 7265,
      "howard": 7266,
      "monuments": 7267,
      "phill": 7268,
      "transition": 7269,
      "labour": 7270,
      "veget": 7271,
      "brian": 7272,
      "biography": 7273,
      "measures": 7274,
      "judge": 7275,
      "watched": 7276,
      "credits": 7277,
      "croatian": 7278,
      "ratings": 7279,
      "split": 7280,
      "##ranean": 7281,
      "khanh": 7282,
      "opinion": 7283,
      "74": 7284,
      "8th": 7285,
      "kat": 7286,
      "lenn": 7287,
      "pav": 7288,
      "##hib": 7289,
      "##zac": 7290,
      "ther": 7291,
      "inland": 7292,
      "##aser": 7293,
      "##rets": 7294,
      "##igration": 7295,
      "##cher": 7296,
      "franch": 7297,
      "##ardo": 7298,
      "amate": 7299,
      "desire": 7300,
      "carib": 7301,
      "##mann": 7302,
      "##phy": 7303,
      "joy": 7304,
      "mayor": 7305,
      "10th": 7306,
      "meteor": 7307,
      "storms": 7308,
      "township": 7309,
      "tries": 7310,
      "walk": 7311,
      "reviewer": 7312,
      "##ews": 7313,
      "nevertheless": 7314,
      "destroyers": 7315,
      "engineers": 7316,
      "denied": 7317,
      "feeling": 7318,
      "uncle": 7319,
      "arranged": 7320,
      "romantic": 7321,
      "jamal": 7322,
      "##break": 7323,
      "portrait": 7324,
      "supreme": 7325,
      "89": 7326,
      "bert": 7327,
      "cos": 7328,
      "jurch": 7329,
      "kel": 7330,
      "vel": 7331,
      "##die": 7332,
      "##nic": 7333,
      "##yson": 7334,
      "##zer": 7335,
      "##entions": 7336,
      "online": 7337,
      "stere": 7338,
      "alan": 7339,
      "spin": 7340,
      "noting": 7341,
      "firing": 7342,
      "worst": 7343,
      "commem": 7344,
      "meets": 7345,
      "##aware": 7346,
      "retreat": 7347,
      "capacity": 7348,
      "stew": 7349,
      "operating": 7350,
      "showing": 7351,
      "lob": 7352,
      "reputation": 7353,
      "1953": 7354,
      "window": 7355,
      "seeing": 7356,
      "detail": 7357,
      "##encies": 7358,
      "references": 7359,
      "memory": 7360,
      "duke": 7361,
      "holds": 7362,
      "circum": 7363,
      "liu": 7364,
      "recognition": 7365,
      "inhabit": 7366,
      "republican": 7367,
      "tennyson": 7368,
      "portrayed": 7369,
      "terminus": 7370,
      "alexander": 7371,
      "pupp": 7372,
      "ax": 7373,
      "dipl": 7374,
      "hud": 7375,
      "kid": 7376,
      "sab": 7377,
      "##eu": 7378,
      "##yard": 7379,
      "##inn": 7380,
      "##itled": 7381,
      "##asions": 7382,
      "##aments": 7383,
      "##lyss": 7384,
      "##uli": 7385,
      "proceed": 7386,
      "unn": 7387,
      "##antly": 7388,
      "##pty": 7389,
      "partners": 7390,
      "weigh": 7391,
      "brand": 7392,
      "flo": 7393,
      "flash": 7394,
      "deck": 7395,
      "brook": 7396,
      "cris": 7397,
      "11th": 7398,
      "breaking": 7399,
      "1913": 7400,
      "reality": 7401,
      "##book": 7402,
      "creator": 7403,
      "carrying": 7404,
      "extrem": 7405,
      "ironclads": 7406,
      "chairman": 7407,
      "rarely": 7408,
      "iraq": 7409,
      "custom": 7410,
      "##borne": 7411,
      "ambassador": 7412,
      "macleod": 7413,
      "fount": 7414,
      "hip": 7415,
      "pier": 7416,
      "sad": 7417,
      "##amy": 7418,
      "##adal": 7419,
      "##adow": 7420,
      "anzac": 7421,
      "##osis": 7422,
      "sher": 7423,
      "1900": 7424,
      "plants": 7425,
      "tra": 7426,
      "afterwards": 7427,
      "desert": 7428,
      "wealth": 7429,
      "acts": 7430,
      "someone": 7431,
      "simone": 7432,
      "maintain": 7433,
      "estate": 7434,
      "magic": 7435,
      "demol": 7436,
      "basic": 7437,
      "opponents": 7438,
      "competitions": 7439,
      "reading": 7440,
      "separated": 7441,
      "responsibility": 7442,
      "autom": 7443,
      "sevent": 7444,
      "methods": 7445,
      "ironclad": 7446,
      "democratic": 7447,
      "columbia": 7448,
      "restaurant": 7449,
      "freedom": 7450,
      "79": 7451,
      "dh": 7452,
      "fab": 7453,
      "hay": 7454,
      "puzz": 7455,
      "vary": 7456,
      "wy": 7457,
      "##itage": 7458,
      "##amm": 7459,
      "##rot": 7460,
      "frig": 7461,
      "##unt": 7462,
      "nether": 7463,
      "exchange": 7464,
      "##pton": 7465,
      "worship": 7466,
      "context": 7467,
      "##onder": 7468,
      "offers": 7469,
      "outstanding": 7470,
      "176": 7471,
      "correct": 7472,
      "entry": 7473,
      "organizations": 7474,
      "attempting": 7475,
      "penalty": 7476,
      "talk": 7477,
      "predec": 7478,
      "cardinal": 7479,
      "accounts": 7480,
      "credited": 7481,
      "investigation": 7482,
      "photograph": 7483,
      "recovered": 7484,
      "alternative": 7485,
      "vessels": 7486,
      "elsewhere": 7487,
      "attributed": 7488,
      "bridges": 7489,
      "caribbe": 7490,
      "erected": 7491,
      "pale": 7492,
      "races": 7493,
      "sight": 7494,
      "ulyss": 7495,
      "##mod": 7496,
      "##eper": 7497,
      "##kes": 7498,
      "##etts": 7499,
      "congreg": 7500,
      "##agn": 7501,
      "##ctions": 7502,
      "##ears": 7503,
      "##elli": 7504,
      "perry": 7505,
      "flat": 7506,
      "##intend": 7507,
      "warm": 7508,
      "##raltar": 7509,
      "accur": 7510,
      "regime": 7511,
      "##oys": 7512,
      "appearing": 7513,
      "16th": 7514,
      "1949": 7515,
      "leads": 7516,
      "designation": 7517,
      "anniversary": 7518,
      "expos": 7519,
      "camps": 7520,
      "1956": 7521,
      "1951": 7522,
      "windows": 7523,
      "statement": 7524,
      "connection": 7525,
      "homer": 7526,
      "occurs": 7527,
      "difficulty": 7528,
      "##going": 7529,
      "senate": 7530,
      "queens": 7531,
      "hugh": 7532,
      "threatened": 7533,
      "discussed": 7534,
      "rifles": 7535,
      "leadership": 7536,
      "global": 7537,
      "gibraltar": 7538,
      "agricultural": 7539,
      "eagle": 7540,
      "caval": 7541,
      "lorenz": 7542,
      "astronom": 7543,
      "caribbean": 7544,
      "ulysses": 7545,
      "ay": 7546,
      "nose": 7547,
      "u2": 7548,
      "##ients": 7549,
      "##oz": 7550,
      "##ois": 7551,
      "##eg": 7552,
      "##rig": 7553,
      "##taining": 7554,
      "##bra": 7555,
      "##ora": 7556,
      "##any": 7557,
      "##iling": 7558,
      "##ceived": 7559,
      "shore": 7560,
      "##agues": 7561,
      "##avia": 7562,
      "committed": 7563,
      "marks": 7564,
      "aggress": 7565,
      "evil": 7566,
      "interested": 7567,
      "accused": 7568,
      "monk": 7569,
      "monarch": 7570,
      "guilt": 7571,
      "pole": 7572,
      "123": 7573,
      "studied": 7574,
      "collect": 7575,
      "verse": 7576,
      "sword": 7577,
      "prize": 7578,
      "moz": 7579,
      "pursu": 7580,
      "##iffe": 7581,
      "approached": 7582,
      "##ooth": 7583,
      "teaching": 7584,
      "emerg": 7585,
      "indicate": 7586,
      "olympics": 7587,
      "picked": 7588,
      "ceremony": 7589,
      "dismissed": 7590,
      "atmosphere": 7591,
      "stephen": 7592,
      "isolated": 7593,
      "67": 7594,
      "88": 7595,
      "covers": 7596,
      "ecc": 7597,
      "session": 7598,
      "##bur": 7599,
      "##eness": 7600,
      "plun": 7601,
      "twin": 7602,
      "aml": 7603,
      "aftern": 7604,
      "beck": 7605,
      "prey": 7606,
      "pregn": 7607,
      "noisy": 7608,
      "guerr": 7609,
      "1983": 7610,
      "novels": 7611,
      "winner": 7612,
      "imposs": 7613,
      "campb": 7614,
      "classes": 7615,
      "classical": 7616,
      "harv": 7617,
      "victims": 7618,
      "communities": 7619,
      "merc": 7620,
      "equipped": 7621,
      "horiz": 7622,
      "georgian": 7623,
      "##iece": 7624,
      "ruler": 7625,
      "tribes": 7626,
      "hosted": 7627,
      "duties": 7628,
      "dollars": 7629,
      "hornung": 7630,
      "ninth": 7631,
      "recommended": 7632,
      "haiti": 7633,
      "survivors": 7634,
      "remnants": 7635,
      "resistance": 7636,
      "extremely": 7637,
      "ah": 7638,
      "pup": 7639,
      "table": 7640,
      "witch": 7641,
      "##ni": 7642,
      "##bles": 7643,
      "##hou": 7644,
      "forests": 7645,
      "##idden": 7646,
      "##aya": 7647,
      "freder": 7648,
      "heat": 7649,
      "##istol": 7650,
      "manner": 7651,
      "allah": 7652,
      "secured": 7653,
      "eliz": 7654,
      "retire": 7655,
      "retained": 7656,
      "soil": 7657,
      "phoen": 7658,
      "armored": 7659,
      "simps": 7660,
      "starred": 7661,
      "112": 7662,
      "junction": 7663,
      "1961": 7664,
      "missed": 7665,
      "archb": 7666,
      "visible": 7667,
      "believes": 7668,
      "merch": 7669,
      "strongly": 7670,
      "programme": 7671,
      "sonic": 7672,
      "suffering": 7673,
      "falling": 7674,
      "selection": 7675,
      "exception": 7676,
      "dynam": 7677,
      "emerged": 7678,
      "camera": 7679,
      "arrangement": 7680,
      "alien": 7681,
      "diameter": 7682,
      "message": 7683,
      "battleships": 7684,
      "francisco": 7685,
      "ritual": 7686,
      "chelsea": 7687,
      "pyram": 7688,
      "simpsons": 7689,
      "99": 7690,
      "bang": 7691,
      "gore": 7692,
      "pad": 7693,
      "patt": 7694,
      "sons": 7695,
      "tig": 7696,
      "vac": 7697,
      "##gie": 7698,
      "##pret": 7699,
      "##orters": 7700,
      "##eland": 7701,
      "##ivals": 7702,
      "shif": 7703,
      "shots": 7704,
      "heritage": 7705,
      "##athers": 7706,
      "partly": 7707,
      "driving": 7708,
      "trials": 7709,
      "restoration": 7710,
      "convin": 7711,
      "patrick": 7712,
      "stands": 7713,
      "palm": 7714,
      "wrong": 7715,
      "settle": 7716,
      "natives": 7717,
      "intensified": 7718,
      "concerts": 7719,
      "##aska": 7720,
      "immediate": 7721,
      "cambridge": 7722,
      "garden": 7723,
      "tunnel": 7724,
      "armoured": 7725,
      "candidate": 7726,
      "specimens": 7727,
      "kurt": 7728,
      "tetrarch": 7729,
      "reconstruction": 7730,
      "unusual": 7731,
      "passengers": 7732,
      "chamber": 7733,
      "afternoon": 7734,
      "3d": 7735,
      "bure": 7736,
      "eu": 7737,
      "fel": 7738,
      "hed": 7739,
      "jenn": 7740,
      "mul": 7741,
      "pip": 7742,
      "tests": 7743,
      "voy": 7744,
      "##oom": 7745,
      "##rich": 7746,
      "##rations": 7747,
      "##yon": 7748,
      "##cement": 7749,
      "##point": 7750,
      "##organ": 7751,
      "##inger": 7752,
      "##emia": 7753,
      "spacing": 7754,
      "mans": 7755,
      "parties": 7756,
      "carved": 7757,
      "displ": 7758,
      "web": 7759,
      "defended": 7760,
      "defences": 7761,
      "maeda": 7762,
      "cape": 7763,
      "##aza": 7764,
      "obtained": 7765,
      "lover": 7766,
      "arrested": 7767,
      "##oba": 7768,
      "destiny": 7769,
      "approved": 7770,
      "burial": 7771,
      "hamilton": 7772,
      "romani": 7773,
      "rebell": 7774,
      "madonna": 7775,
      "improve": 7776,
      "multi": 7777,
      "drawing": 7778,
      "nomination": 7779,
      "rooms": 7780,
      "venus": 7781,
      "feelings": 7782,
      "scholar": 7783,
      "constantine": 7784,
      "boliv": 7785,
      "architecture": 7786,
      "hibari": 7787,
      "renew": 7788,
      "hindu": 7789,
      "diplom": 7790,
      "gather": 7791,
      "oak": 7792,
      "ped": 7793,
      "qedar": 7794,
      "tab": 7795,
      "##right": 7796,
      "##ruli": 7797,
      "##orer": 7798,
      "##enburg": 7799,
      "##aling": 7800,
      "##acent": 7801,
      "styles": 7802,
      "##aga": 7803,
      "indeed": 7804,
      "blues": 7805,
      "##iously": 7806,
      "##ockey": 7807,
      "ackn": 7808,
      "income": 7809,
      "counties": 7810,
      "starr": 7811,
      "signing": 7812,
      "returns": 7813,
      "evergl": 7814,
      "implement": 7815,
      "patri": 7816,
      "1920": 7817,
      "debate": 7818,
      "##ivalent": 7819,
      "massachus": 7820,
      "territories": 7821,
      "teacher": 7822,
      "rangers": 7823,
      "mortal": 7824,
      "rifle": 7825,
      "attracted": 7826,
      "purchase": 7827,
      "apparent": 7828,
      "pushed": 7829,
      "resources": 7830,
      "arsenal": 7831,
      "expansion": 7832,
      "bureau": 7833,
      "acknow": 7834,
      "everglades": 7835,
      "massachusetts": 7836,
      "cu": 7837,
      "fitted": 7838,
      "gri": 7839,
      "gust": 7840,
      "jag": 7841,
      "mall": 7842,
      "##aire": 7843,
      "##rif": 7844,
      "clay": 7845,
      "impl": 7846,
      "offense": 7847,
      "##ffman": 7848,
      "##ultane": 7849,
      "fled": 7850,
      "songwrit": 7851,
      "simultane": 7852,
      "depend": 7853,
      "1977": 7854,
      "13th": 7855,
      "mediter": 7856,
      "confeder": 7857,
      "internal": 7858,
      "##attered": 7859,
      "enterprise": 7860,
      "##quez": 7861,
      "rocky": 7862,
      "closer": 7863,
      "admitted": 7864,
      "samuel": 7865,
      "oslo": 7866,
      "bringing": 7867,
      "adults": 7868,
      "vessel": 7869,
      "roger": 7870,
      "mongol": 7871,
      "iguanodon": 7872,
      "learning": 7873,
      "05": 7874,
      "06": 7875,
      "faces": 7876,
      "gle": 7877,
      "lap": 7878,
      "nom": 7879,
      "option": 7880,
      "sell": 7881,
      "##math": 7882,
      "##zen": 7883,
      "##fare": 7884,
      "##onica": 7885,
      "##uses": 7886,
      "enfor": 7887,
      "##cliffe": 7888,
      "preced": 7889,
      "consum": 7890,
      "consult": 7891,
      "somewh": 7892,
      "divine": 7893,
      "loan": 7894,
      "raf": 7895,
      "medium": 7896,
      "completion": 7897,
      "1955": 7898,
      "1910": 7899,
      "1937": 7900,
      "legs": 7901,
      "destruction": 7902,
      "easy": 7903,
      "posted": 7904,
      "brigades": 7905,
      "changing": 7906,
      "painted": 7907,
      "promote": 7908,
      "seemed": 7909,
      "withdrew": 7910,
      "absor": 7911,
      "montana": 7912,
      "bombard": 7913,
      "bradford": 7914,
      "drums": 7915,
      "documentary": 7916,
      "extreme": 7917,
      "overseas": 7918,
      "eggs": 7919,
      "amateur": 7920,
      "crisis": 7921,
      "fountain": 7922,
      "frederick": 7923,
      "mediterranean": 7924,
      "somewhat": 7925,
      "07": 7926,
      "bones": 7927,
      "dc": 7928,
      "lakes": 7929,
      "rated": 7930,
      "tick": 7931,
      "taught": 7932,
      "vast": 7933,
      "##ram": 7934,
      "##rain": 7935,
      "##wich": 7936,
      "##vis": 7937,
      "##ori": 7938,
      "##arth": 7939,
      "##icide": 7940,
      "reag": 7941,
      "alph": 7942,
      "shall": 7943,
      "##abeth": 7944,
      "##arts": 7945,
      "aftermath": 7946,
      "roxas": 7947,
      "overwh": 7948,
      "indicated": 7949,
      "followers": 7950,
      "revol": 7951,
      "122": 7952,
      "extension": 7953,
      "##inking": 7954,
      "morrison": 7955,
      "equal": 7956,
      "circulation": 7957,
      "towers": 7958,
      "regularly": 7959,
      "archaeology": 7960,
      "maryland": 7961,
      "badly": 7962,
      "jerusal": 7963,
      "concerned": 7964,
      "hundreds": 7965,
      "owen": 7966,
      "controversial": 7967,
      "emotional": 7968,
      "dangerous": 7969,
      "dinosaur": 7970,
      "submarine": 7971,
      "lorenzo": 7972,
      "impossible": 7973,
      "jerusalem": 7974,
      "bos": 7975,
      "dna": 7976,
      "fold": 7977,
      "gone": 7978,
      "ky": 7979,
      "mode": 7980,
      "nas": 7981,
      "nbc": 7982,
      "page": 7983,
      "tie": 7984,
      "##oh": 7985,
      "##gas": 7986,
      "##dy": 7987,
      "##ira": 7988,
      "chess": 7989,
      "##osa": 7990,
      "prohib": 7991,
      "truj": 7992,
      "##oster": 7993,
      "adams": 7994,
      "##oking": 7995,
      "relative": 7996,
      "aged": 7997,
      "partial": 7998,
      "assumed": 7999,
      "maya": 8000,
      "incom": 8001,
      "stef": 8002,
      "##inson": 8003,
      "##azing": 8004,
      "eddie": 8005,
      "pointed": 8006,
      "collaps": 8007,
      "1954": 8008,
      "1938": 8009,
      "streak": 8010,
      "possession": 8011,
      "easily": 8012,
      "##aurus": 8013,
      "footage": 8014,
      "1927": 8015,
      "##iveness": 8016,
      "covering": 8017,
      "satell": 8018,
      "tribute": 8019,
      "sequel": 8020,
      "platoon": 8021,
      "##ometric": 8022,
      "institutions": 8023,
      "surrounded": 8024,
      "hearts": 8025,
      "exhaust": 8026,
      "corner": 8027,
      "guardian": 8028,
      "climate": 8029,
      "somali": 8030,
      "mobile": 8031,
      "incorporated": 8032,
      "behavi": 8033,
      "nerva": 8034,
      "georgia": 8035,
      "commemor": 8036,
      "circumst": 8037,
      "bou": 8038,
      "cass": 8039,
      "hong": 8040,
      "josh": 8041,
      "ken": 8042,
      "mack": 8043,
      "nintend": 8044,
      "pir": 8045,
      "pure": 8046,
      "##no": 8047,
      "##sch": 8048,
      "##bn": 8049,
      "##fri": 8050,
      "thro": 8051,
      "##ester": 8052,
      "##arf": 8053,
      "##itals": 8054,
      "forcing": 8055,
      "shells": 8056,
      "deem": 8057,
      "##illing": 8058,
      "cloth": 8059,
      "adam": 8060,
      "uss": 8061,
      "##ensis": 8062,
      "interpret": 8063,
      "warning": 8064,
      "##amps": 8065,
      "driven": 8066,
      "strand": 8067,
      "directors": 8068,
      "178": 8069,
      "1962": 8070,
      "temples": 8071,
      "involving": 8072,
      "representative": 8073,
      "limit": 8074,
      "meetings": 8075,
      "escort": 8076,
      "reduce": 8077,
      "hunting": 8078,
      "products": 8079,
      "distributed": 8080,
      "essential": 8081,
      "rhythm": 8082,
      "apparently": 8083,
      "dramatic": 8084,
      "elder": 8085,
      "inspiration": 8086,
      "franchise": 8087,
      "mozamb": 8088,
      "trujillo": 8089,
      "nintendo": 8090,
      "diet": 8091,
      "lies": 8092,
      "lanc": 8093,
      "sisters": 8094,
      "tip": 8095,
      "wants": 8096,
      "##gation": 8097,
      "##rest": 8098,
      "##ao": 8099,
      "##cements": 8100,
      "##vada": 8101,
      "##je": 8102,
      "##inals": 8103,
      "##orous": 8104,
      "##itated": 8105,
      "##icate": 8106,
      "##state": 8107,
      "##amar": 8108,
      "##uri": 8109,
      "bear": 8110,
      "alg": 8111,
      "aniston": 8112,
      "##umps": 8113,
      "sees": 8114,
      "proport": 8115,
      "existed": 8116,
      "##anti": 8117,
      "ammun": 8118,
      "##raf": 8119,
      "serial": 8120,
      "partially": 8121,
      "carter": 8122,
      "throne": 8123,
      "installed": 8124,
      "1958": 8125,
      "aviation": 8126,
      "harry": 8127,
      "videos": 8128,
      "deliver": 8129,
      "christoph": 8130,
      "laws": 8131,
      "detailed": 8132,
      "identity": 8133,
      "satis": 8134,
      "stayed": 8135,
      "observations": 8136,
      "matth": 8137,
      "jean": 8138,
      "lords": 8139,
      "voted": 8140,
      "masters": 8141,
      "giant": 8142,
      "interaction": 8143,
      "doubt": 8144,
      "rhodesian": 8145,
      "encouraged": 8146,
      "argentina": 8147,
      "fungus": 8148,
      "unsuccessful": 8149,
      "ammunition": 8150,
      "08": 8151,
      "86": 8152,
      "bone": 8153,
      "dag": 8154,
      "dele": 8155,
      "danny": 8156,
      "ryan": 8157,
      "sulf": 8158,
      "tong": 8159,
      "##ien": 8160,
      "##nell": 8161,
      "##ugh": 8162,
      "##rees": 8163,
      "##imate": 8164,
      "isbn": 8165,
      "dean": 8166,
      "##iform": 8167,
      "recalled": 8168,
      "##kson": 8169,
      "engines": 8170,
      "preserved": 8171,
      "121": 8172,
      "stein": 8173,
      "persp": 8174,
      "offices": 8175,
      "protests": 8176,
      "140": 8177,
      "entitled": 8178,
      "switch": 8179,
      "treated": 8180,
      "moral": 8181,
      "activision": 8182,
      "hamlet": 8183,
      "squadrons": 8184,
      "settled": 8185,
      "audio": 8186,
      "accommod": 8187,
      "languages": 8188,
      "relationships": 8189,
      "korea": 8190,
      "panel": 8191,
      "traveled": 8192,
      "hoped": 8193,
      "linked": 8194,
      "taxon": 8195,
      "adventure": 8196,
      "infrast": 8197,
      "isabella": 8198,
      "lennon": 8199,
      "plunket": 8200,
      "archbishop": 8201,
      "bom": 8202,
      "eric": 8203,
      "fern": 8204,
      "gor": 8205,
      "hat": 8206,
      "kong": 8207,
      "mes": 8208,
      "pion": 8209,
      "raw": 8210,
      "sessions": 8211,
      "tone": 8212,
      "##rates": 8213,
      "##ician": 8214,
      "##elet": 8215,
      "answ": 8216,
      "plane": 8217,
      "##abled": 8218,
      "usd": 8219,
      "##anger": 8220,
      "upgraded": 8221,
      "forming": 8222,
      "poets": 8223,
      "parish": 8224,
      "parks": 8225,
      "genre": 8226,
      "ministry": 8227,
      "airborne": 8228,
      "127": 8229,
      "musicians": 8230,
      "disturb": 8231,
      "germans": 8232,
      "designs": 8233,
      "modified": 8234,
      "collabor": 8235,
      "1959": 8236,
      "victories": 8237,
      "calvert": 8238,
      "1920s": 8239,
      "standards": 8240,
      "lowest": 8241,
      "statistics": 8242,
      "scientific": 8243,
      "grounds": 8244,
      "destroyer": 8245,
      "praise": 8246,
      "funds": 8247,
      "injured": 8248,
      "effectively": 8249,
      "beautiful": 8250,
      "sharp": 8251,
      "wearing": 8252,
      "fixed": 8253,
      "residential": 8254,
      "criminal": 8255,
      "initiative": 8256,
      "cave": 8257,
      "cory": 8258,
      "dens": 8259,
      "holl": 8260,
      "kansas": 8261,
      "saraj": 8262,
      "##fc": 8263,
      "##erry": 8264,
      "##atures": 8265,
      "##elin": 8266,
      "leuk": 8267,
      "spur": 8268,
      "appropri": 8269,
      "mega": 8270,
      "paras": 8271,
      "param": 8272,
      "##teenth": 8273,
      "coloss": 8274,
      "muslim": 8275,
      "understand": 8276,
      "engag": 8277,
      "15th": 8278,
      "westward": 8279,
      "exposed": 8280,
      "medal": 8281,
      "myst": 8282,
      "universal": 8283,
      "refers": 8284,
      "highways": 8285,
      "suggesting": 8286,
      "ready": 8287,
      "looked": 8288,
      "strip": 8289,
      "normally": 8290,
      "preparation": 8291,
      "absence": 8292,
      "victorian": 8293,
      "caes": 8294,
      "degrees": 8295,
      "##rupted": 8296,
      "diamond": 8297,
      "##evo": 8298,
      "somalia": 8299,
      "assassination": 8300,
      "stanley": 8301,
      "citizens": 8302,
      "download": 8303,
      "kitsune": 8304,
      "inhabitants": 8305,
      "netherlands": 8306,
      "sarajevo": 8307,
      "02": 8308,
      "09": 8309,
      "900": 8310,
      "az": 8311,
      "jif": 8312,
      "kim": 8313,
      "kaw": 8314,
      "mud": 8315,
      "na": 8316,
      "##ook": 8317,
      "##night": 8318,
      "stu": 8319,
      "##roph": 8320,
      "##using": 8321,
      "##agas": 8322,
      "##udes": 8323,
      "##ignment": 8324,
      "relie": 8325,
      "ages": 8326,
      "agree": 8327,
      "##enses": 8328,
      "prep": 8329,
      "##inton": 8330,
      "formal": 8331,
      "actual": 8332,
      "elabor": 8333,
      "reveals": 8334,
      "generated": 8335,
      "##uchi": 8336,
      "junior": 8337,
      "occasions": 8338,
      "communications": 8339,
      "equivalent": 8340,
      "representing": 8341,
      "influences": 8342,
      "veronica": 8343,
      "honour": 8344,
      "difficulties": 8345,
      "stationed": 8346,
      "practices": 8347,
      "norman": 8348,
      "happened": 8349,
      "opposite": 8350,
      "alleged": 8351,
      "cabin": 8352,
      "thousand": 8353,
      "environmental": 8354,
      "yankovic": 8355,
      "bolivar": 8356,
      "satellite": 8357,
      "cov": 8358,
      "mast": 8359,
      "pink": 8360,
      "rag": 8361,
      "rib": 8362,
      "tam": 8363,
      "##dal": 8364,
      "##ares": 8365,
      "stable": 8366,
      "forb": 8367,
      "islam": 8368,
      "cong": 8369,
      "shakes": 8370,
      "##umin": 8371,
      "##illed": 8372,
      "##eare": 8373,
      "brick": 8374,
      "charity": 8375,
      "consc": 8376,
      "underst": 8377,
      "##ugu": 8378,
      "movements": 8379,
      "armament": 8380,
      "divor": 8381,
      "crush": 8382,
      "operate": 8383,
      "metrop": 8384,
      "162": 8385,
      "165": 8386,
      "annually": 8387,
      "##ception": 8388,
      "restored": 8389,
      "1935": 8390,
      "eleven": 8391,
      "listen": 8392,
      "solar": 8393,
      "patron": 8394,
      "requested": 8395,
      "1929": 8396,
      "youngest": 8397,
      "cycle": 8398,
      "nighting": 8399,
      "defeating": 8400,
      "donald": 8401,
      "burned": 8402,
      "circle": 8403,
      "clearly": 8404,
      "heaven": 8405,
      "materials": 8406,
      "watersh": 8407,
      "occupation": 8408,
      "aware": 8409,
      "adjacent": 8410,
      "clarkson": 8411,
      "trouble": 8412,
      "distinguished": 8413,
      "affairs": 8414,
      "protagonist": 8415,
      "beckham": 8416,
      "behaviour": 8417,
      "jifna": 8418,
      "92": 8419,
      "ace": 8420,
      "gend": 8421,
      "##lan": 8422,
      "##uge": 8423,
      "##wan": 8424,
      "##put": 8425,
      "##hi": 8426,
      "##6th": 8427,
      "##olitan": 8428,
      "##rose": 8429,
      "alter": 8430,
      "##chang": 8431,
      "##otic": 8432,
      "shipping": 8433,
      "##odies": 8434,
      "seal": 8435,
      "##una": 8436,
      "##ifer": 8437,
      "##uda": 8438,
      "enth": 8439,
      "enters": 8440,
      "notably": 8441,
      "recur": 8442,
      "intense": 8443,
      "contest": 8444,
      "grace": 8445,
      "canter": 8446,
      "muscar": 8447,
      "writings": 8448,
      "surpr": 8449,
      "publishing": 8450,
      "obl": 8451,
      "##annah": 8452,
      "anyone": 8453,
      "corp": 8454,
      "1911": 8455,
      "1932": 8456,
      "blacks": 8457,
      "deliber": 8458,
      "godd": 8459,
      "1921": 8460,
      "radcliffe": 8461,
      "causes": 8462,
      "representatives": 8463,
      "turrets": 8464,
      "1909": 8465,
      "brien": 8466,
      "rebels": 8467,
      "innov": 8468,
      "improv": 8469,
      "composer": 8470,
      "choir": 8471,
      "wilde": 8472,
      "visitors": 8473,
      "moments": 8474,
      "disappoint": 8475,
      "skye": 8476,
      "cancer": 8477,
      "reinforcements": 8478,
      "behavior": 8479,
      "imprison": 8480,
      "corporation": 8481,
      "pyramid": 8482,
      "nightingale": 8483,
      "citing": 8484,
      "icon": 8485,
      "nu": 8486,
      "tack": 8487,
      "wic": 8488,
      "##mate": 8489,
      "##mont": 8490,
      "##rus": 8491,
      "##hu": 8492,
      "##real": 8493,
      "##ilation": 8494,
      "styl": 8495,
      "##iders": 8496,
      "##igation": 8497,
      "comments": 8498,
      "##avada": 8499,
      "##ishment": 8500,
      "abd": 8501,
      "indones": 8502,
      "blow": 8503,
      "recordings": 8504,
      "artific": 8505,
      "austrian": 8506,
      "willing": 8507,
      "gerard": 8508,
      "expensive": 8509,
      "raise": 8510,
      "owner": 8511,
      "1912": 8512,
      "harbour": 8513,
      "kevin": 8514,
      "##encing": 8515,
      "salv": 8516,
      "burning": 8517,
      "predomin": 8518,
      "housing": 8519,
      "wilson": 8520,
      "institution": 8521,
      "russia": 8522,
      "absol": 8523,
      "productions": 8524,
      "banai": 8525,
      "ensure": 8526,
      "journalist": 8527,
      "purposes": 8528,
      "nickn": 8529,
      "compounds": 8530,
      "tactics": 8531,
      "cryst": 8532,
      "ille": 8533,
      "##otype": 8534,
      "##iques": 8535,
      "reunion": 8536,
      "##cribed": 8537,
      "jesus": 8538,
      "cavalry": 8539,
      "elizabeth": 8540,
      "cant": 8541,
      "hi": 8542,
      "hob": 8543,
      "kw": 8544,
      "kiss": 8545,
      "las": 8546,
      "rig": 8547,
      "##onia": 8548,
      "##icit": 8549,
      "##oli": 8550,
      "##eted": 8551,
      "reh": 8552,
      "anch": 8553,
      "seas": 8554,
      "##apse": 8555,
      "unp": 8556,
      "excess": 8557,
      "prer": 8558,
      "prol": 8559,
      "enh": 8560,
      "##iang": 8561,
      "clock": 8562,
      "perimeter": 8563,
      "resumed": 8564,
      "cars": 8565,
      "cargo": 8566,
      "disaster": 8567,
      "interests": 8568,
      "flower": 8569,
      "dece": 8570,
      "poison": 8571,
      "remember": 8572,
      "airline": 8573,
      "generals": 8574,
      "##yll": 8575,
      "origins": 8576,
      "discip": 8577,
      "expand": 8578,
      "laud": 8579,
      "1931": 8580,
      "stream": 8581,
      "lawrence": 8582,
      "claiming": 8583,
      "##itarian": 8584,
      "influential": 8585,
      "ceratops": 8586,
      "satur": 8587,
      "mexican": 8588,
      "err": 8589,
      "injuries": 8590,
      "martial": 8591,
      "##itzer": 8592,
      "watching": 8593,
      "objective": 8594,
      "ranges": 8595,
      "bulk": 8596,
      "pleasure": 8597,
      "vote": 8598,
      "pictures": 8599,
      "revolutionary": 8600,
      "executed": 8601,
      "grammy": 8602,
      "crusad": 8603,
      "cotton": 8604,
      "overwhel": 8605,
      "shakesp": 8606,
      "canterbury": 8607,
      "03": 8608,
      "bapt": 8609,
      "cater": 8610,
      "foss": 8611,
      "kin": 8612,
      "rect": 8613,
      "sale": 8614,
      "tight": 8615,
      "wel": 8616,
      "wine": 8617,
      "##mel": 8618,
      "##aver": 8619,
      "##aug": 8620,
      "##cer": 8621,
      "##inge": 8622,
      "##illy": 8623,
      "##owitz": 8624,
      "cha": 8625,
      "shield": 8626,
      "trained": 8627,
      "price": 8628,
      "spaces": 8629,
      "recon": 8630,
      "boom": 8631,
      "agents": 8632,
      "carries": 8633,
      "norway": 8634,
      "otherwise": 8635,
      "warren": 8636,
      "formally": 8637,
      "remark": 8638,
      "coleman": 8639,
      "understanding": 8640,
      "poland": 8641,
      "supporters": 8642,
      "smooth": 8643,
      "divers": 8644,
      "metall": 8645,
      "install": 8646,
      "obst": 8647,
      "avo": 8648,
      "bases": 8649,
      "formerly": 8650,
      "trading": 8651,
      "sounds": 8652,
      "holiday": 8653,
      "##ombat": 8654,
      "mixture": 8655,
      "tales": 8656,
      "recognised": 8657,
      "crews": 8658,
      "inhg": 8659,
      "##yrin": 8660,
      "garrison": 8661,
      "catal": 8662,
      "schedule": 8663,
      "legislation": 8664,
      "ethnic": 8665,
      "specimen": 8666,
      "lbw": 8667,
      "minimum": 8668,
      "delayed": 8669,
      "preferred": 8670,
      "infrastructure": 8671,
      "shakespeare": 8672,
      "aqu": 8673,
      "bore": 8674,
      "fate": 8675,
      "lith": 8676,
      "mant": 8677,
      "mole": 8678,
      "ost": 8679,
      "vand": 8680,
      "wings": 8681,
      "##gam": 8682,
      "##uv": 8683,
      "##cia": 8684,
      "##bie": 8685,
      "##fire": 8686,
      "##xe": 8687,
      "inaug": 8688,
      "anime": 8689,
      "anek": 8690,
      "prosp": 8691,
      "##apers": 8692,
      "##ategy": 8693,
      "clark": 8694,
      "herge": 8695,
      "margin": 8696,
      "goffman": 8697,
      "playoff": 8698,
      "acclaim": 8699,
      "regiments": 8700,
      "defending": 8701,
      "phr": 8702,
      "scheme": 8703,
      "strategy": 8704,
      "ports": 8705,
      "instance": 8706,
      "161": 8707,
      "musician": 8708,
      "113": 8709,
      "johnston": 8710,
      "ordin": 8711,
      "persu": 8712,
      "models": 8713,
      "concur": 8714,
      "reprodu": 8715,
      "classification": 8716,
      "arriving": 8717,
      "publications": 8718,
      "1933": 8719,
      "geoff": 8720,
      "refuge": 8721,
      "antic": 8722,
      "listing": 8723,
      "periods": 8724,
      "federation": 8725,
      "propag": 8726,
      "labyrin": 8727,
      "heavyweight": 8728,
      "##spec": 8729,
      "turb": 8730,
      "argues": 8731,
      "needs": 8732,
      "funer": 8733,
      "select": 8734,
      "kilmer": 8735,
      "inher": 8736,
      "objects": 8737,
      "properties": 8738,
      "thinking": 8739,
      "prevented": 8740,
      "doctr": 8741,
      "janeiro": 8742,
      "defenders": 8743,
      "throwing": 8744,
      "##criptions": 8745,
      "proposal": 8746,
      "segment": 8747,
      "strategic": 8748,
      "dialogue": 8749,
      "jacob": 8750,
      "indigen": 8751,
      "cambodia": 8752,
      "saprang": 8753,
      "queensland": 8754,
      "emergency": 8755,
      "convinced": 8756,
      "acknowled": 8757,
      "circumstances": 8758,
      "deemed": 8759,
      "fernand": 8760,
      "colossal": 8761,
      "watershed": 8762,
      "84": 8763,
      "bce": 8764,
      "jma": 8765,
      "sailed": 8766,
      "wag": 8767,
      "wimb": 8768,
      "##oes": 8769,
      "theor": 8770,
      "##etime": 8771,
      "##lying": 8772,
      "##emies": 8773,
      "fred": 8774,
      "frust": 8775,
      "fraser": 8776,
      "analy": 8777,
      "##esses": 8778,
      "##ifies": 8779,
      "clinton": 8780,
      "manus": 8781,
      "manga": 8782,
      "ago": 8783,
      "carp": 8784,
      "canyon": 8785,
      "teen": 8786,
      "southeastern": 8787,
      "quant": 8788,
      "starling": 8789,
      "extent": 8790,
      "##ledon": 8791,
      "temporary": 8792,
      "lawton": 8793,
      "survive": 8794,
      "moore": 8795,
      "represents": 8796,
      "criticised": 8797,
      "travelled": 8798,
      "departure": 8799,
      "narrative": 8800,
      "tribut": 8801,
      "garcia": 8802,
      "koreans": 8803,
      "documents": 8804,
      "richardson": 8805,
      "displays": 8806,
      "adopt": 8807,
      "##coming": 8808,
      "vehicle": 8809,
      "dawn": 8810,
      "laboratory": 8811,
      "struggle": 8812,
      "nazi": 8813,
      "instruments": 8814,
      "spiritual": 8815,
      "impressed": 8816,
      "palestine": 8817,
      "meteorological": 8818,
      "prerog": 8819,
      "wimbledon": 8820,
      "cull": 8821,
      "celt": 8822,
      "dick": 8823,
      "gent": 8824,
      "hockey": 8825,
      "mental": 8826,
      "mamm": 8827,
      "##mus": 8828,
      "##gets": 8829,
      "##ware": 8830,
      "##atropical": 8831,
      "##icity": 8832,
      "##acle": 8833,
      "##olith": 8834,
      "bearing": 8835,
      "##ima": 8836,
      "##uting": 8837,
      "##opp": 8838,
      "##rift": 8839,
      "gran": 8840,
      "assert": 8841,
      "symp": 8842,
      "driver": 8843,
      "severely": 8844,
      "##lets": 8845,
      "slide": 8846,
      "obv": 8847,
      "considering": 8848,
      "glad": 8849,
      "harrison": 8850,
      "delaware": 8851,
      "organised": 8852,
      "furthermore": 8853,
      "villages": 8854,
      "casting": 8855,
      "malays": 8856,
      "wright": 8857,
      "devot": 8858,
      "fifteen": 8859,
      "##after": 8860,
      "rounds": 8861,
      "audiences": 8862,
      "sequences": 8863,
      "poorly": 8864,
      "establishing": 8865,
      "batteries": 8866,
      "patrol": 8867,
      "sleep": 8868,
      "advertising": 8869,
      "extratropical": 8870,
      "false": 8871,
      "reservoir": 8872,
      "prompted": 8873,
      "rebuilt": 8874,
      "decorated": 8875,
      "substantial": 8876,
      "warrior": 8877,
      "pupils": 8878,
      "christopher": 8879,
      "aa": 8880,
      "cec": 8881,
      "cake": 8882,
      "dak": 8883,
      "fert": 8884,
      "gill": 8885,
      "hou": 8886,
      "kit": 8887,
      "kombat": 8888,
      "nur": 8889,
      "pig": 8890,
      "rav": 8891,
      "rising": 8892,
      "sb": 8893,
      "##iac": 8894,
      "##gated": 8895,
      "##dney": 8896,
      "##ses": 8897,
      "##bound": 8898,
      "##burn": 8899,
      "##eries": 8900,
      "##inery": 8901,
      "toll": 8902,
      "##reh": 8903,
      "##ilst": 8904,
      "stood": 8905,
      "##ager": 8906,
      "sure": 8907,
      "uniform": 8908,
      "integr": 8909,
      "allies": 8910,
      "partner": 8911,
      "overl": 8912,
      "outbreak": 8913,
      "assisted": 8914,
      "engage": 8915,
      "163": 8916,
      "continental": 8917,
      "1940s": 8918,
      "depending": 8919,
      "loose": 8920,
      "useful": 8921,
      "arrive": 8922,
      "temp": 8923,
      "tempor": 8924,
      "considers": 8925,
      "waterfall": 8926,
      "keamy": 8927,
      "internet": 8928,
      "organisation": 8929,
      "believing": 8930,
      "everyone": 8931,
      "situated": 8932,
      "talking": 8933,
      "doesn": 8934,
      "condem": 8935,
      "hitler": 8936,
      "berlin": 8937,
      "atlanta": 8938,
      "coaching": 8939,
      "##roscop": 8940,
      "administrative": 8941,
      "graphics": 8942,
      "evacuation": 8943,
      "neighbor": 8944,
      "premiere": 8945,
      "pursue": 8946,
      "guilty": 8947,
      "simultaneously": 8948,
      "artificial": 8949,
      "indigenous": 8950,
      "manuscript": 8951,
      "83": 8952,
      "bag": 8953,
      "fishing": 8954,
      "fasc": 8955,
      "gary": 8956,
      "jr": 8957,
      "lists": 8958,
      "lanes": 8959,
      "mys": 8960,
      "nit": 8961,
      "pull": 8962,
      "sic": 8963,
      "tut": 8964,
      "tale": 8965,
      "tailed": 8966,
      "ust": 8967,
      "##wa": 8968,
      "##wer": 8969,
      "##went": 8970,
      "##vant": 8971,
      "##hol": 8972,
      "##inus": 8973,
      "##oma": 8974,
      "##thosaurus": 8975,
      "##roit": 8976,
      "forg": 8977,
      "asc": 8978,
      "whilst": 8979,
      "##idation": 8980,
      "chron": 8981,
      "succ": 8982,
      "degr": 8983,
      "arj": 8984,
      "plus": 8985,
      "##aboration": 8986,
      "##uster": 8987,
      "scattered": 8988,
      "abund": 8989,
      "residence": 8990,
      "resigned": 8991,
      "attained": 8992,
      "interpre": 8993,
      "##ricted": 8994,
      "warships": 8995,
      "thereafter": 8996,
      "surg": 8997,
      "##itts": 8998,
      "125": 8999,
      "##oleon": 9000,
      "belg": 9001,
      "miller": 9002,
      "mainland": 9003,
      "##atherine": 9004,
      "helmet": 9005,
      "##eera": 9006,
      "collaboration": 9007,
      "1957": 9008,
      "childhood": 9009,
      "differences": 9010,
      "1928": 9011,
      "amongst": 9012,
      "weekend": 9013,
      "detroit": 9014,
      "compete": 9015,
      "##neesh": 9016,
      "readers": 9017,
      "civilians": 9018,
      "elections": 9019,
      "techniques": 9020,
      "fallen": 9021,
      "researchers": 9022,
      "informed": 9023,
      "achieve": 9024,
      "ferry": 9025,
      "arabic": 9026,
      "experiences": 9027,
      "saved": 9028,
      "encountered": 9029,
      "orbit": 9030,
      "rajneesh": 9031,
      "biographer": 9032,
      "nichol": 9033,
      "napoleon": 9034,
      "moderate": 9035,
      "plunketts": 9036,
      "corythosaurus": 9037,
      "saturday": 9038,
      "bah": 9039,
      "baker": 9040,
      "cbs": 9041,
      "dal": 9042,
      "fia": 9043,
      "hub": 9044,
      "lose": 9045,
      "mail": 9046,
      "sq": 9047,
      "sect": 9048,
      "tide": 9049,
      "tenth": 9050,
      "wet": 9051,
      "##gle": 9052,
      "##dale": 9053,
      "##uable": 9054,
      "##bing": 9055,
      "##olay": 9056,
      "wasn": 9057,
      "aside": 9058,
      "suicide": 9059,
      "##apore": 9060,
      "##ocy": 9061,
      "spoke": 9062,
      "resign": 9063,
      "evolution": 9064,
      "paraly": 9065,
      "remarked": 9066,
      "northward": 9067,
      "airfield": 9068,
      "singapore": 9069,
      "166": 9070,
      "originated": 9071,
      "155": 9072,
      "provision": 9073,
      "##ucing": 9074,
      "restrict": 9075,
      "harbor": 9076,
      "1926": 9077,
      "looks": 9078,
      "olm": 9079,
      "striking": 9080,
      "voiced": 9081,
      "biggest": 9082,
      "jews": 9083,
      "fault": 9084,
      "creative": 9085,
      "observatory": 9086,
      "ranging": 9087,
      "imagine": 9088,
      "loud": 9089,
      "depicts": 9090,
      "##caa": 9091,
      "indicating": 9092,
      "determine": 9093,
      "weapon": 9094,
      "sacred": 9095,
      "shaft": 9096,
      "touchdowns": 9097,
      "demonstrated": 9098,
      "publisher": 9099,
      "conspiracy": 9100,
      "marlborough": 9101,
      "exposure": 9102,
      "rebellion": 9103,
      "prerogative": 9104,
      "cow": 9105,
      "dave": 9106,
      "gates": 9107,
      "hok": 9108,
      "liv": 9109,
      "mbar": 9110,
      "nurs": 9111,
      "por": 9112,
      "rates": 9113,
      "sas": 9114,
      "sull": 9115,
      "tast": 9116,
      "tai": 9117,
      "wander": 9118,
      "##lec": 9119,
      "##rant": 9120,
      "##rator": 9121,
      "##western": 9122,
      "##bal": 9123,
      "##ja": 9124,
      "##esc": 9125,
      "##eler": 9126,
      "render": 9127,
      "##owed": 9128,
      "beth": 9129,
      "conclusion": 9130,
      "prove": 9131,
      "##apy": 9132,
      "herald": 9133,
      "grave": 9134,
      "allen": 9135,
      "resolution": 9136,
      "fei": 9137,
      "flot": 9138,
      "parach": 9139,
      "charged": 9140,
      "buff": 9141,
      "##ologies": 9142,
      "drain": 9143,
      "surge": 9144,
      "101": 9145,
      "describe": 9146,
      "##isms": 9147,
      "corb": 9148,
      "1934": 9149,
      "expert": 9150,
      "21st": 9151,
      "factors": 9152,
      "ranking": 9153,
      "closest": 9154,
      "cruise": 9155,
      "synag": 9156,
      "melody": 9157,
      "catech": 9158,
      "drove": 9159,
      "dispatch": 9160,
      "layer": 9161,
      "displayed": 9162,
      "terrain": 9163,
      "frequent": 9164,
      "architectural": 9165,
      "elevation": 9166,
      "opportunities": 9167,
      "illustrated": 9168,
      "##heim": 9169,
      "neutral": 9170,
      "consequently": 9171,
      "cinema": 9172,
      "terrorist": 9173,
      "ricky": 9174,
      "phillies": 9175,
      "predecessor": 9176,
      "stefani": 9177,
      "code": 9178,
      "dor": 9179,
      "dies": 9180,
      "denn": 9181,
      "lam": 9182,
      "nl": 9183,
      "ride": 9184,
      "racing": 9185,
      "saves": 9186,
      "veter": 9187,
      "wonder": 9188,
      "zoo": 9189,
      "##life": 9190,
      "##dles": 9191,
      "##nings": 9192,
      "##rabb": 9193,
      "##wick": 9194,
      "##ko": 9195,
      "##vn": 9196,
      "##hm": 9197,
      "##ji": 9198,
      "##leman": 9199,
      "##irid": 9200,
      "##ivan": 9201,
      "bears": 9202,
      "hend": 9203,
      "chanc": 9204,
      "shik": 9205,
      "##oceratops": 9206,
      "tru": 9207,
      "trick": 9208,
      "twins": 9209,
      "amino": 9210,
      "marry": 9211,
      "overlo": 9212,
      "##ensions": 9213,
      "prefect": 9214,
      "##ricts": 9215,
      "coordin": 9216,
      "earning": 9217,
      "sydney": 9218,
      "subspec": 9219,
      "##ternal": 9220,
      "artwork": 9221,
      "millenn": 9222,
      "landings": 9223,
      "variation": 9224,
      "passion": 9225,
      "expect": 9226,
      "raff": 9227,
      "collapse": 9228,
      "harm": 9229,
      "explo": 9230,
      "communication": 9231,
      "valuable": 9232,
      "bands": 9233,
      "opponent": 9234,
      "cleared": 9235,
      "soldier": 9236,
      "seeking": 9237,
      "jackrabb": 9238,
      "sunk": 9239,
      "fifa": 9240,
      "predators": 9241,
      "liked": 9242,
      "fundament": 9243,
      "huge": 9244,
      "personality": 9245,
      "princess": 9246,
      "suspended": 9247,
      "waiting": 9248,
      "succeed": 9249,
      "excavation": 9250,
      "pitman": 9251,
      "fatal": 9252,
      "batsman": 9253,
      "drug": 9254,
      "puppet": 9255,
      "hudson": 9256,
      "retirement": 9257,
      "collapsed": 9258,
      "prepare": 9259,
      "subspecies": 9260,
      "fib": 9261,
      "gets": 9262,
      "gamb": 9263,
      "kon": 9264,
      "kann": 9265,
      "linc": 9266,
      "laugh": 9267,
      "mood": 9268,
      "##rent": 9269,
      "##ti": 9270,
      "##boy": 9271,
      "##va": 9272,
      "##fu": 9273,
      "thor": 9274,
      "##esco": 9275,
      "##icus": 9276,
      "##ecast": 9277,
      "forty": 9278,
      "##ivated": 9279,
      "alive": 9280,
      "##ulating": 9281,
      "##osl": 9282,
      "##ables": 9283,
      "##acks": 9284,
      "##iped": 9285,
      "usage": 9286,
      "feud": 9287,
      "coins": 9288,
      "##away": 9289,
      "##rible": 9290,
      "assess": 9291,
      "revival": 9292,
      "releases": 9293,
      "supplement": 9294,
      "105": 9295,
      "founder": 9296,
      "numbered": 9297,
      "operates": 9298,
      "operational": 9299,
      "metre": 9300,
      "designer": 9301,
      "persian": 9302,
      "sixteen": 9303,
      "##ontin": 9304,
      "furt": 9305,
      "latex": 9306,
      "demands": 9307,
      "harsh": 9308,
      "refere": 9309,
      "swim": 9310,
      "promised": 9311,
      "difference": 9312,
      "radiation": 9313,
      "1000": 9314,
      "sugar": 9315,
      "structural": 9316,
      "innoc": 9317,
      "murd": 9318,
      "senator": 9319,
      "costs": 9320,
      "dominant": 9321,
      "oxy": 9322,
      "violent": 9323,
      "favorable": 9324,
      "aerith": 9325,
      "recovery": 9326,
      "grown": 9327,
      "ohio": 9328,
      "mccarty": 9329,
      "alfred": 9330,
      "exclusively": 9331,
      "plateau": 9332,
      "gilbert": 9333,
      "sympath": 9334,
      "olmec": 9335,
      "01": 9336,
      "banned": 9337,
      "dust": 9338,
      "jtw": 9339,
      "kam": 9340,
      "rud": 9341,
      "tiss": 9342,
      "yug": 9343,
      "##graf": 9344,
      "##tr": 9345,
      "##inations": 9346,
      "##inje": 9347,
      "##acles": 9348,
      "stores": 9349,
      "shock": 9350,
      "shark": 9351,
      "suit": 9352,
      "suitable": 9353,
      "##unction": 9354,
      "trough": 9355,
      "amid": 9356,
      "##pled": 9357,
      "carri": 9358,
      "pref": 9359,
      "interstate": 9360,
      "centers": 9361,
      "format": 9362,
      "underwent": 9363,
      "##graph": 9364,
      "peaking": 9365,
      "mines": 9366,
      "armies": 9367,
      "##leton": 9368,
      "steps": 9369,
      "##elson": 9370,
      "deput": 9371,
      "barker": 9372,
      "respective": 9373,
      "advancing": 9374,
      "walking": 9375,
      "markgraf": 9376,
      "historically": 9377,
      "supern": 9378,
      "##box": 9379,
      "turret": 9380,
      "fifty": 9381,
      "putting": 9382,
      "networks": 9383,
      "magazines": 9384,
      "ruling": 9385,
      "dominican": 9386,
      "measured": 9387,
      "employees": 9388,
      "athletics": 9389,
      "contribution": 9390,
      "interesting": 9391,
      "renov": 9392,
      "application": 9393,
      "subjects": 9394,
      "camer": 9395,
      "texts": 9396,
      "krak": 9397,
      "celebrated": 9398,
      "portugal": 9399,
      "adventures": 9400,
      "withdrawal": 9401,
      "premiered": 9402,
      "swedish": 9403,
      "crops": 9404,
      "perspective": 9405,
      "anekant": 9406,
      "temporarily": 9407,
      "sullivan": 9408,
      "synagogue": 9409,
      "raffles": 9410,
      "furtado": 9411,
      "jtwc": 9412,
      "bour": 9413,
      "gap": 9414,
      "hans": 9415,
      "jury": 9416,
      "lud": 9417,
      "ns": 9418,
      "nhl": 9419,
      "ncaa": 9420,
      "ok": 9421,
      "rocks": 9422,
      "rabb": 9423,
      "vault": 9424,
      "yo": 9425,
      "##tic": 9426,
      "##yc": 9427,
      "##pe": 9428,
      "##power": 9429,
      "##piece": 9430,
      "##vati": 9431,
      "##inian": 9432,
      "andre": 9433,
      "##omic": 9434,
      "##ecraft": 9435,
[...]
